[PAD
[UNK]
[CLS]
[SEP]
[MASK]
!
"
#
$
%
&
'
(
)
*
+
,
-
.
/
0
1
2
3
4
5
6
7
8
9
:
;
<
=
>
?
@
A
B
C
D
E
F
G
H
I
J
K
L
M
N
O
P
Q
R
S
T
U
V
W
X
Y
Z
[
\
]
^
_
`
a
b
c
d
e
f
g
h
i
j
k
l
m
n
o
p
q
r
s
t
u
v
w
x
y
z
{
|
}
~
¡
¢
£
¥
§
¨
©
«
¬
®
¯
°
±
²
³
´
µ
¶
·
¸
¹
º
»
¼
½
¾
¿
À
Á
Å
Ç
È
É
Í
Î
Ï
Ó
Ö
×
Ü
ß
à
á
â
ã
ä
å
æ
ç
è
é
ê
ë
ì
í
î
ï
ñ
ò
ó
ô
õ
ö
÷
ø
ù
ú
û
ü
ý
Ā
ā
ć
ĉ
č
Đ
ē
ę
ğ
ġ
ī
ĭ
İ
ı
ĸ
ł
ń
Ō
ō
œ
Ś
ś
š
ť
ū
ž
ǎ
ǐ
ș
ɑ
ɒ
ə
ɛ
ɡ
ɢ
ɪ
ɴ
ʀ
ʁ
ʃ
ʊ
ʌ
ʏ
ʒ
ʖ
ʙ
ʜ
ʟ
ʰ
ʳ
ʻ
ʼ
ʿ
ˈ
ˌ
ː
˚
́
̅
̲
̶
͞
͟
͡
Δ
Λ
Μ
Φ
ά
έ
ή
ί
α
β
γ
δ
ε
η
θ
ι
κ
λ
μ
ν
ξ
ο
π
ρ
ς
σ
τ
υ
φ
ω
ό
ύ
А
Б
В
Г
Д
З
И
М
Н
О
П
Р
С
Т
У
Ф
Х
Я
а
б
в
г
д
е
ж
з
и
й
к
л
м
н
о
п
р
с
т
у
х
ц
ч
ш
щ
ы
ь
э
ю
я
ѕ
ғ
ա
א
ד
ה
ו
ח
ט
י
כ
ל
ם
מ
ן
ע
ק
ר
ש
ת
أ
إ
ا
ب
ة
ت
ج
ح
خ
د
ر
ز
س
ش
ص
ع
ف
ق
ك
ل
م
ن
ه
و
ى
ي
ی
۞
۩
ஜ
ᴀ
ᴄ
ᴅ
ᴇ
ᴊ
ᴋ
ᴍ
ᴏ
ᴘ
ᴛ
ᴜ
ᴠ
ᴡ
ᴵ
ᵗ
ḷ
ἀ
ἐ
ἔ
ὁ
ὶ
ῦ
‐
‑
–
—
―
‘
’
‚
“
”
„
†
•
‣
…
′
″
›
‼
⁄
⁉
₀
₂
₄
€
₵
℅
ℐ
ℒ
™
ℯ
ℴ
⅓
⅔
→
↳
↴
⇒
−
∕
∙
√
∞
∼
≠
⏖
⏩
⏺
━
┃
┈
┊
┗
┳
╌
═
║
╚
╭
╮
╯
╰
╱
╲
▀
▂
▄
▅
▆
▇
█
▊
▋
▏
░
▒
▓
▔
▕
▙
■
▪
▫
▬
▰
▱
▶
▷
▸
►
◄
○
●
◐
◔
◕
◾
☄
★
☆
☎
☏
☐
☑
☒
☔
☙
☜
☝
☞
☠
☭
☮
☹
☺
☻
♀
♂
♡
♥
♪
♫
♲
⚠
⚡
⚽
⚾
⛷
✅
✈
✊
✋
✌
✒
✓
✔
✘
✞
✨
✬
✭
✰
✾
❄
❆
❓
❔
❗
❣
❤
❥
❧
➕
➡
➤
➥
⠀
⤵
⬅
⬆
⭐
。
「
」
ツ
ン
・
下
不
中
了
人
他
以
会
你
关
加
卖
去
可
国
土
大
失
小
巨
想
我
所
拿
收
教
文
是
有
本
来
没
法
的
看
税
系
美
要
说
豆
钱
나
니
다
도
마
야
어
에
을
이
합
해
ﬁ
ﬂ
️
！
（
）
，
．
／
：
？
Ｃ
Ｉ
Ｍ
Ｏ
Ｓ
Ｗ
＼
ａ
ｂ
ｃ
ｄ
ｅ
ｆ
ｈ
ｉ
ｌ
ｍ
ｎ
ｏ
ｒ
ｓ
ｔ
ｕ
ｗ
ｙ
｜
￦
￼
𝐅
𝐊
𝐍
𝐓
𝐘
𝐚
𝐛
𝐜
𝐝
𝐞
𝐡
𝐢
𝐥
𝐦
𝐧
𝐨
𝐩
𝐫
𝐬
𝐭
𝐮
𝐯
𝐰
𝑩
𝑪
𝑫
𝑬
𝑮
𝑯
𝑰
𝑱
𝑲
𝑴
𝑵
𝑶
𝑷
𝑹
𝑺
𝑻
𝑾
𝒂
𝒃
𝒄
𝒅
𝒆
𝒇
𝒈
𝒉
𝒊
𝒌
𝒍
𝒎
𝒏
𝒐
𝒑
𝒒
𝒓
𝒔
𝒕
𝒖
𝒗
𝒘
𝒙
𝒚
𝒛
𝒽
𝒾
𝓇
𝓉
𝕴
𝖆
𝖈
𝖉
𝖊
𝖋
𝖌
𝖍
𝖎
𝖐
𝖑
𝖒
𝖓
𝖔
𝖕
𝖗
𝖘
𝖙
𝖚
𝖛
𝖜
𝖞
𝗕
𝗮
𝗯
𝗰
𝗱
𝗲
𝗳
𝗴
𝗵
𝗶
𝗹
𝗺
𝗻
𝗼
𝗽
𝗿
𝘀
𝘁
𝘂
𝘃
𝘄
𝘆
𝘓
𝘢
𝘣
𝘤
𝘥
𝘦
𝘧
𝘨
𝘩
𝘪
𝘭
𝘮
𝘯
𝘰
𝘱
𝘳
𝘴
𝘵
𝘶
𝘸
𝘺
𝘼
𝙃
𝙄
𝙇
𝙈
𝙔
𝙖
𝙗
𝙘
𝙙
𝙚
𝙛
𝙜
𝙝
𝙞
𝙠
𝙡
𝙢
𝙣
𝙤
𝙥
𝙧
𝙨
𝙩
𝙪
𝙫
𝙬
𝙭
𝙮
𝟔
𝟬
𝟭
𝟱
🆘
🇦
🇨
🇩
🇪
🇮
🇳
🇴
🇵
🇷
🇸
🇹
🇺
🌍
🌎
🌏
🌞
🌟
🌮
🌯
🌸
🌹
🌺
🍁
🍆
🍑
🍔
🍕
🍻
🎃
🎆
🎉
🎫
🎵
🎶
🎼
🏃
🏆
🏉
🏐
🏻
🏼
🏽
🏾
🐀
🐈
🐒
🐕
🐟
🐱
🐵
🐶
🐷
🐸
🐾
👀
👄
👅
👆
👉
👊
👋
👌
👍
👎
👏
👐
👤
👥
👮
👶
👹
👺
👽
👿
💀
💃
💋
💎
💐
💔
💕
💖
💗
💙
💚
💛
💜
💤
💥
💨
💩
💪
💫
💯
💰
💵
📣
📺
🔥
🔫
🔼
🗽
😀
😁
😂
😃
😄
😅
😆
😇
😈
😉
😊
😋
😌
😍
😎
😏
😐
😑
😒
😓
😔
😕
😖
😘
😙
😛
😜
😝
😞
😟
😠
😡
😢
😣
😤
😥
😦
😧
😨
😩
😪
😫
😬
😭
😮
😯
😰
😱
😲
😳
😴
😵
😶
😷
🙀
🙁
🙂
🙃
🙄
🙈
🙉
🙊
🙌
🙏
🚀
🚓
🚬
🚲
🚽
🚿
🤐
🤑
🤓
🤔
🤕
🤗
🤙
🤞
🤠
🤡
🤢
🤣
🤤
🤥
🤦
🤧
🤷
🦁
🦄
🦊
##a
##r
##i
##n
##g
##t
##u
##o
##s
##z
##e
##d
##9
##A
##b
##c
##m
##l
##N
##C
##0
##y
##1
##5
##4
##3
##8
##6
##q
##h
##B
##I
##R
##O
##S
##P
##T
##x
##p
##f
##k
##U
##E
##M
##Y
##Q
##7
##F
##J
##w
##D
##v
##K
##L
##G
##W
##𝒏
##𝒅
##ó
##Z
##ß
##V
##2
##H
##j
##╮
##é
##𝙤
##𝙣
##X
##𝖗
##𝖔
##𝖚
##𝖓
##𝖉
##õ
##у
##с
##к
##а
##я
##ê
##😀
##í
##ū
##™
##ѕ
##●
##▬
##ஜ
##𝒐
##𝒄
##𝒆
##𝒂
##𝒍
##𝒊
##𝒈
##️
##❤
##😎
##®
##🐱
##🤔
##어
##è
##ɴ
##😆
##👍
##◕
##✾
##°
##т
##𝘆
##𝗻
##𝗮
##𝗴
##𝗼
##𝘂
##𝗲
##𝘀
##𝒔
##𝒖
##𝒕
##𝒉
##𝒎
##ø
##ğ
##ō
##´
##🙉
##🙊
##✅
##á
##ɪ
##ː
##═
##♂
##해
##야
##ə
##ɡ
##¢
##ā
##𝒙
##𝒗
##ë
##ö
##Μ
##È
##ο
##ς
##🏼
##✌
##ä
##𝒚
##𝒓
##о
##ч
##ʻ
##🙏
##😕
##ر
##ح
##ب
##ا
##𝙞
##ｅ
##𝒘
##𝐞
##𝐚
##𝐜
##𝐭
##𝐢
##𝐨
##𝐧
##𝐬
##י
##ן
##ˈ
##͞
##ē
##😏
##🇪
##£
##л
##🙃
##►
##ｎ
##ｏ
##ｗ
##𝘰
##𝘮
##𝘦
##ñ
##ı
##û
##▪
##👏
##â
##😛
##❥
##É
##ι
##𝘯
##𝘵
##𝙪
##º
##ρ
##ô
##𝙫
##𝙚
##𝙧
##𝙢
##𝙩
##𝒑
##税
##收
##来
##了
##̅
##̲
##🍕
##╌
##𝘢
##𝘥
##۩
##۞
##ᴜ
##ᴛ
##υ
##ʊ
##ʰ
##💕
##ᴀ
##ᴋ
##ᴇ
##ü
##👤
##👥
##à
##🏾
##💥
##下
##ン
##в
##е
##𝘁
##𝗿
##ć
##𝒌
##😇
##┈
##╲
##▕
##▔
##▏
##╱
##ᴵ
##🙄
##🇺
##🇸
##💙
##Ā
##˚
##ｒ
##ｍ
##ｔ
##░
##Ｏ
##Ｓ
##и
##г
##́
##н
##🤗
##î
##©
##▀
##𝗱
##ʀ
##ᴏ
##ᴍ
##⚾
##🏐
##⚽
##ᴅ
##𝙗
##𝙡
##ل
##ق
##ف
##😉
##😋
##🏻
##⁄
##𝐫
##🎼
##😜
##▄
##𝙨
##👎
##𝗵
##ه
##☮
##💚
##𝙭
##𝙘
##𝗶
##м
##▶
##★
##ь
##ы
##р
##й
##ш
##ɢ
##ᴠ
##ｃ
##ｉ
##𝙖
##😴
##ã
##𝙛
##⭐
##𝗰
##ί
##β
##η
##是
##🐕
##😂
##ʟ
##♲
##🎶
##🌞
##✈
##𝖊
##𝖆
##𝙝
##¬
##τ
##γ
##ή
##В
##С
##å
##ت
##ن
##س
##𝖎
##🤐
##을
##🍻
##𝙃
##📣
##𝗹
##ج
##𝐥
##ǐ
##👆
##œ
##Ś
##𝗺
##👉
##д
##̶
##🐟
##😁
##😄
##₵
##¨
##😡
##ʏ
##▷
##𝙙
##𝐦
##🇦
##🇳
##𝗽
##𝙜
##μ
##ύ
##σ
##✔
##𝙮
##🇷
##λ
##ν
##𝘺
##𝖙
##𝖌
##𝖍
##п
##ю
##د
##م
##𝐮
##ｓ
##ц
##з
##😟
##😱
##👊
##😊
##🌟
##💜
##б
##𝒛
##ό
##😨
##ｄ
##𝐡
##🙁
##😭
##😠
##−
##🤡
##█
##▓
##▒
##ʜ
##∕
##😒
##❣
##🇴
##🇹
##🤞
##💩
##👅
##𝙠
##ú
##𝘴
##➡
##🚽
##𝐛
##𝟔
##𝐅
##𝐓
##𝐘
##🤣
##æ
##ɒ
##😙
##大
##的
##²
##😔
##Ō
##🤙
##ˌ
##ī
##🇵
##ç
##🏽
##𝒇
##☞
##ĸ
##ʁ
##🔥
##ᴄ
##☹
##ï
##𝘓
##𝗳
##𝘩
##𝘪
##𝘱
##Ｍ
##ғ
##Λ
##ʃ
##ﬁ
##ġ
##◐
##ĭ
##👿
##😈
##𝘃
##😫
##😩
##😖
##ａ
##ｌ
##😝
##¹
##𝘳
##𝖜
##š
##ش
##▂
##¾
##¥
##▰
##ĉ
##☔
##🍆
##🍑
##ל
##ת
##ק
##ד
##ם
##ᴡ
##±
##Ｉ
##😃
##😢
##ά
##κ
##إ
##𝑮
##国
##人
##에
##♥
##😮
##▱
##ù
##𝘣
##ʌ
##ة
##𝖘
##💛
##💀
##☠
##🆘
##ę
##α
##𝖈
##🤓
##×
##🗽
##♡
##😍
##🙌
##✊
##𝐰
##ي
##و
##━
##😪
##💔
##😣
##도
##𝙥
##☆
##✒
##😳
##ɛ
##👌
##🐸
##ò
##💪
##♪
##ś
##💗
##ε
##😑
##ר
##ה
##€
##❄
##╚
##🐷
##ص
##ك
##ʒ
##想
##我
##可
##以
##ł
##💖
##🤠
##☺
##👀
##🙈
##✋
##𝘶
##¸
##😅
##𝒒
##🏃
##文
##𝐝
##э
##➤
##℅
##👹
##中
##加
##拿
##看
##法
##不
##去
##ｙ
##أ
##𝘭
##😬
##♫
##要
##🍁
##💨
##🤑
##щ
##𝙬
##¯
##ו
##✰
##έ
##π
##𝖑
##𝖋
##ῦ
##美
##ｈ
##Я
##ń
##ա
##𝐯
##ω
##ｕ
##👋
##ʼ
##ی
##ز
##🎉
##𝟱
##𝟭
##🌮
##И
##З
##О
##❓
##😐
##ж
##А
##Р
##½
##😧
##🚓
##𝖞
##𝖛
##🦊
##😰
##𝟬
##÷
##有
##č
##⇒
##₀
##마
##╰
##╯
##☄
##🤤
##💰
##💎
##خ
##😥
##ｆ
##⏖
##₂
##𝑶
##𝘧
##ǎ
##╭
##┳
##⬆
##土
##豆
##🤷
##🤧
##Δ
##⚡
##✨
##𝐩
##🐈
##🏆
##🤢
##𝒃
##🇨
##😤
##ℴ
##ℯ
##🌯
##ʙ
##͡
##🌍
##你
##Ｗ
##😷
##ℐ
##☭
##𝒽
##𝓉
##😞
##说
##ᴘ
##ž
##→
##🐀
##ý
##𝐍
##𝐊
##니
##다
##◄
##𝘄
##ì
##ע
##🎵
##ť
##ש
##⤵
##δ
##√
##🚿
##ɑ
##Á
##本
##ט
##θ
##ξ
##🏉
##Å
##나
##😵
##关
##系
##ᵗ
##⚠
##┊
##🌹
##♀
##א
##𝖕
##会
##😘
##➥
##🇮
##𝓇
##👐
##😓
##⬅
##┗
##💫
##✬
##教
##没
##𝘨
##ș
##𝘸
##𝗯
##他
##钱
##𝘤
##𝑬
##𝑹
##🚬
##Í
##🌺
##מ
##ʳ
##￦
##🇩
##ʿ
##☻
##Н
##ع
##🤥
##😌
##𝒾
##ח
##失
##所
##🙀
##🔼
##🔫
##͟
##🎆
##❗
##😲
##х
##Г
##☝
##💵
##✓
##▊
##▋
##כ
##ى
##이
##◔
##ἀ
##🎫
##ʖ
##║
##☏
##☎
##𝖐
##🤕
##✞
##𝘼
##🚲
##Ï
##ὶ
##₄
##Ö
##³
##💐
##🌸
##💋
##𝖒
##ḷ
##┃
th
##er
the
##in
##at
##on
##ou
##es
##en
##or
##an
##ing
to
##ed
an
##al
##it
##ar
##is
in
of
and
##re
##ic
##as
##ll
##om
##ot
is
##ion
##le
be
##ent
##ly
##ve
##st
wh
that
you
re
##ut
##ow
##se
for
##ct
on
##id
##ld
Th
##et
##ad
##ay
it
##ver
##ig
pr
##ur
st
##ce
##im
##ill
ha
are
##ir
##op
not
##ch
##ere
##ith
##ol
##am
##ers
##ould
with
##th
##ke
as
##nd
##ation
have
do
##um
he
The
##ess
##ate
##il
##est
li
sh
we
com
de
ne
con
they
go
##ment
##ist
or
was
se
this
##ac
##ter
##ust
##us
##igh
##pp
##od
##ul
##ge
su
ab
##ore
at
tr
all
fr
##and
##ant
##ome
##em
##ain
ch
##out
##one
##oc
##ally
ex
##ity
will
##ive
le
can
##ort
who
##ab
pro
wor
##ight
##un
their
by
##ost
but
##iv
##ies
##os
your
from
ta
Tr
would
pe
##nt
##pe
##ople
has
##art
##au
al
about
##ump
so
##ans
##ear
people
what
out
Wh
##ff
any
##gh
like
##ie
##end
##king
more
me
ma
##ous
It
##ud
##ose
his
##our
no
up
##ib
##ard
##all
##ue
just
get
##act
ag
one
Trump
##ack
##ast
if
ar
them
##ong
##ough
pl
there
man
##ep
some
##ame
##her
kn
##ime
##ap
##ice
don
##ions
us
our
##aw
un
oth
year
##ven
than
##iz
##ks
##ry
en
##ag
##ence
##ub
res
##pl
##ect
should
##oo
##ial
##el
bec
##ind
know
cl
##age
##if
##ount
cr
ever
##ure
im
when
##pt
ad
##ich
##are
dis
##ink
##ob
my
##ause
Can
##hing
You
need
inc
int
##ree
over
pol
off
been
did
##ine
##lic
were
##ell
##ated
cont
tax
gr
how
##ound
other
does
##int
##ary
##ite
right
Canad
Ch
##ro
##mer
##able
time
ac
##ia
say
##ical
If
po
only
want
comp
act
##ide
think
sa
sp
##ens
##vern
##ass
part
##ber
##ian
##ip
And
because
##ult
##ish
fa
##ublic
##00
##ase
##ire
dr
qu
##reat
every
##qu
those
see
had
##og
##ance
##own
##wn
which
per
##lect
##uc
##way
pay
##uch
many
way
govern
##ious
am
This
##nder
##ons
supp
fe
vot
##ach
years
co
now
app
good
new
He
even
##ery
count
him
Al
##erv
In
##ings
pre
her
##ign
St
##ations
then
We
##ile
##ace
being
bl
own
under
##ild
That
could
much
##ors
work
make
bet
##meric
##ident
##per
##itt
##sel
government
They
again
prob
##oney
Americ
these
##ond
##als
##ict
##ath
##ory
too
into
##so
state
gu
di
##oy
##ving
wr
spe
back
bu
cons
##ress
bel
##ec
money
##tt
inter
law
most
##ade
rep
##ord
att
What
##ates
But
comm
br
##ood
sc
##ail
##ook
elect
polit
very
20
real
pers
ind
em
may
dec
going
##ru
fact
So
te
inv
##other
##ft
acc
imp
##ak
##ove
##oss
she
##ves
rec
US
##ually
well
##res
##ents
here
##ert
##ick
why
##pect
##ism
same
##ians
where
Canada
##ative
##ting
##ang
##orm
##ise
support
comment
There
belie
also
##ope
def
##fter
fu
##ual
##ition
##ocr
never
##lem
person
call
fir
##eg
point
##ying
said
##eral
##ri
##ible
take
long
##thing
cor
##alth
##amp
id
tw
##less
read
##ily
day
rel
down
inf
As
##ask
happ
##vel
art
##fe
high
problem
##ful
its
##ces
job
##ool
ref
leg
really
How
rem
##ffer
world
public
##fore
##ning
##uss
##ra
##ange
No
sy
car
ev
pres
country
##eep
##ark
##omet
##ists
still
##oth
##ower
bus
##ics
ter
op
reg
med
##ating
care
##ved
ve
iss
contr
after
##ew
ob
##iss
##ude
sm
thr
des
better
##oll
cour
##illion
##ason
fl
ass
##its
##ince
##ern
artic
An
##cept
ins
##ense
though
dem
##ution
prop
Alask
wom
seem
##con
big
somet
##kes
##iness
cost
doesn
hel
##self
post
sch
use
##ied
201
##get
Sh
el
nothing
##ave
before
##ject
Ob
soc
let
##urn
Is
sim
##ities
first
end
such
far
help
sub
keep
##ility
##be
##uth
against
##ead
lead
##ne
Not
put
##vers
thing
##read
left
bas
##ttp
http
##ational
##ock
made
great
##ues
differ
##stem
##anc
another
prov
##ene
exp
##imes
##ank
child
start
war
par
##ea
believe
##ug
fam
##ives
system
##te
business
play
Rep
##ather
two
##ren
article
##ama
last
didn
lot
Just
wat
##xt
something
home
life
##les
##ction
cle
run
##ways
sure
##up
mat
##urch
got
show
add
##ocrat
##conom
prot
##stand
health
##oup
find
resp
things
Un
##ific
Why
look
while
##ci
##ize
hand
inst
ed
gen
tal
less
free
econom
min
Cl
serv
##urr
agree
come
sl
##ention
##old
news
##arly
someone
interest
imm
##ever
fund
##enc
##hip
anything
##ittle
Don
school
ro
##ices
bad
##olog
invest
sec
##av
##gr
##ently
without
actually
happen
##ments
through
##ouse
change
reason
ll
stop
quest
few
both
##ee
disc
vote
Dem
must
doing
mon
##iew
##ts
opp
##ably
mean
always
ret
understand
ill
##az
##ars
##ploy
old
Pres
Lib
Obama
incl
##ys
little
##ull
##ont
##cc
##imin
##der
##day
done
##ute
eff
might
##led
Alaska
Republic
##ither
tell
##we
str
political
##ically
ph
Russ
Do
##ority
plan
##ited
enough
##ake
conc
contin
allow
stand
around
since
ent
char
fin
##ants
women
hum
won
oil
wrong
kill
conf
simp
anyone
word
hard
##ration
give
19
##gn
sur
##oot
power
##ider
##ward
num
##ready
ext
American
rest
best
##arn
President
isn
used
already
##aid
##ai
##gest
et
##aim
away
##iet
cho
##ese
##ody
beh
##ty
needs
##red
##min
prof
stud
feel
maj
incre
##any
ser
##ww
pop
##ah
rac
##osed
taxes
When
issue
least
##lf
others
pass
Mr
election
##ending
May
hist
Canadian
place
else
##ier
kid
##ash
live
media
commun
coll
##ness
party
##oub
##rem
##itiz
liber
10
##lease
report
head
www
##wh
es
##uring
##ets
Re
##rist
employ
aff
##pr
prod
##ng
##acy
win
##uck
##udeau
etc
giv
##ike
000
gun
course
unt
##ertain
##ately
claim
Chin
##ized
spec
##aps
family
fail
Trudeau
vi
gl
val
All
next
requ
America
##ember
##oun
Democrat
NO
case
deal
##vious
##stit
Fr
For
##oh
##selves
##bers
##ience
hope
##ait
white
question
million
bo
sign
getting
popul
My
making
##io
group
##ior
adv
priv
citiz
trans
##onder
##reed
##ix
Go
trying
story
mark
mil
Or
##air
Br
##ER
ign
##ederal
mar
everyone
polic
opin
bene
loc
sol
##isl
dep
Pr
red
##ten
##ivid
educ
different
##ked
##ivil
children
cut
comple
pos
class
seems
lar
##ollow
God
terr
##ale
sex
viol
build
mind
##use
##land
camp
immig
yet
##ald
Clint
president
true
benef
Christ
consider
certain
##ries
equ
cap
cre
includ
term
thought
relig
teach
called
poss
curr
matter
exper
comments
##yp
makes
deb
##ween
##ush
lo
protect
past
cond
Hill
income
org
Yes
##ient
##rect
cann
##ends
until
##uct
##idence
follow
ago
kind
set
##ired
On
having
between
non
Now
illeg
##plain
wonder
either
Com
land
Haw
loo
full
eas
thin
##por
Clinton
poor
##man
social
watch
bill
##haps
##rupt
##ner
##ffic
prom
history
jobs
based
sit
saying
small
list
hu
today
human
##augh
##ortun
Your
turn
Hawai
##arm
working
arg
##ger
move
control
##imate
doll
##ised
##ken
##line
guy
##ural
import
themselves
times
city
means
##idd
##used
##ision
##outh
##ling
probably
month
dist
She
ra
##athol
Hillary
view
level
self
##gress
rather
##ivers
found
simply
laws
result
det
name
paid
##ures
##orth
try
open
##ats
inform
##atives
##orn
love
##very
##ric
ant
fri
##ote
expect
respons
mo
##gy
legisl
grow
##icul
Well
##ality
says
https
wee
proc
idea
##ators
miss
##ides
men
##ency
main
sk
av
##ature
##empt
buy
dire
chang
##gram
police
doub
mem
line
mod
attack
State
rights
sal
Cathol
top
Canadians
##lish
mis
Americans
gener
cannot
##ops
kids
##ased
offic
Ar
Con
Maybe
mor
sug
citizens
##sw
legal
##anks
cent
##iety
bud
guess
100
##ex
truth
market
cover
##ages
##lim
jud
tra
milit
##ny
One
program
low
become
issues
##ret
##ument
##velop
##ines
during
##tty
opinion
each
est
ignor
##ought
indust
##ample
##fer
auth
##body
sense
##stitution
countries
Pe
hold
likely
maybe
side
fun
##par
##ther
effect
To
hear
able
facts
correct
number
instead
hate
Let
days
politic
##ases
##ruct
Good
suggest
ca
complete
appro
##uslim
Oh
Per
exc
team
200
##reg
fol
air
cred
Har
##ged
abs
##ether
dest
evidence
leaders
##ced
federal
##ards
##cially
given
##ted
accept
answ
cult
New
house
##ator
##ully
private
fut
example
##aign
majority
black
using
##tern
fire
develop
bre
once
living
everything
conserv
lost
respect
##ital
##ession
##app
##form
crimin
##pecially
##uff
China
rid
economy
form
current
wants
##rib
office
##ified
##ots
wait
##actly
TH
paying
insur
Ex
tot
continue
order
campaign
civil
military
##ology
whole
##IN
##ided
##where
sw
investig
Church
serious
clear
den
folks
##oint
important
##ater
##ounds
costs
mention
gets
##ane
pretty
##minist
##fully
ris
aren
future
##ton
##ences
entire
cand
##gin
seen
Republican
col
taking
##anies
che
comes
bit
##ech
##alk
fair
death
##eign
young
Sen
local
sell
individ
invol
##most
##LL
illegal
large
vict
drug
project
stat
nation
##ibility
sing
including
words
##alf
##erals
neg
hous
##aking
talking
concern
propert
game
rul
regul
anti
Some
##inc
##ott
account
##iddle
##oph
mess
##upid
hon
terror
50
NOT
##arr
companies
mass
Russia
liberal
##ands
##ik
##iver
##ctor
##ison
corpor
road
exist
Muslim
water
chec
##ister
At
del
personal
society
crit
Donald
ide
candid
budget
##orts
Hawaii
##ream
obvious
bring
elected
met
often
Who
coming
##resent
##ames
national
community
pat
##reme
learn
threat
education
15
states
##ental
gas
Ind
process
billion
sour
insurance
lim
regard
pur
Liberals
especially
##orry
answer
##ization
##ensive
##mm
goes
##AT
##ony
Republicans
policy
mill
stupid
meet
foreign
##ON
along
Catholic
church
rece
Gl
dollars
defin
These
Then
sent
##yn
went
face
##tain
wouldn
##ees
##iting
##omes
information
discuss
almost
##ges
ap
##iving
##pay
##ife
##ohn
ir
looking
refer
##for
stay
administ
##aper
dog
##ann
##lam
##uation
short
crime
rate
##umb
appear
bro
lives
Any
People
Be
30
property
week
problems
##ph
##ging
fight
Cong
came
protest
##ury
AN
certainly
except
voted
##ify
adm
dam
voters
told
due
industry
ones
yes
sad
close
Are
##oke
De
Democrats
##ield
##ades
members
three
treat
With
occ
Cons
##ario
took
wasn
whether
population
North
ask
remember
quite
worth
##ended
##unch
direct
##aud
reality
fall
test
woman
second
##osing
service
yourself
Mc
Part
happened
vis
fac
pot
##aged
attempt
organ
thinking
sever
provide
politics
exactly
pract
##anger
Act
John
choice
##olute
lack
conv
single
record
victim
hour
corrupt
afford
##ler
speech
##ief
Of
ear
rev
bi
economic
leave
##und
##br
##urity
mur
taxpay
##orr
##cent
disag
Liberal
##eed
His
##ork
spending
##RE
Thank
##itive
trump
##arch
common
company
Govern
infl
##side
##OP
env
Am
rail
possible
const
half
##ains
##ender
##ins
##ters
##ird
##atch
racist
immigr
intell
##ortion
aw
##ured
offer
shoot
talk
food
higher
return
fav
##now
##yr
increase
Every
Bl
oper
represent
allowed
##ites
##bs
wish
##ising
press
##ract
eng
##ability
Ag
##itions
BC
succ
position
cause
longer
subs
please
##ared
##ighb
However
wealth
behind
surpr
worse
##iron
court
doubt
##dd
Comm
Was
within
##uly
taken
intern
##ially
amount
##reen
##tle
arm
##earch
politicians
##ipp
himself
##atever
##ories
##eal
##reedom
12
rich
climate
Cr
financ
needed
##atic
difference
fig
price
poll
repl
sus
##OU
speak
##aff
knows
fear
House
area
Most
spend
neighb
schools
Jes
opt
Even
##obal
United
running
soon
USA
##usion
compet
Did
Le
##uce
millions
repe
thous
##urther
##IS
unf
Ont
States
stre
##ances
##oid
Eur
nec
product
##rew
success
lower
housing
##igin
behav
religious
middle
train
##ironment
Where
Congress
situation
experience
##rict
##obe
##iter
##CA
strong
Please
##ived
parents
Sp
famil
##ls
blame
fix
coun
##ials
##istic
wing
ann
##itted
##itting
dead
pie
Perhaps
##DP
lab
huge
owners
nice
##hood
Our
Harper
immigration
tech
##ax
##ission
##ium
##pet
##ergy
statement
murder
##lev
##ming
##ilt
##alse
actions
##uses
##ox
arr
major
absolute
clearly
disagree
##itch
Thanks
heard
percent
bar
workers
decision
months
##eah
contrib
Europe
author
debt
##rop
##ey
##ipe
##ule
criminal
##vent
##aring
pred
##izing
##erm
##come
Jesus
##iest
trade
friends
argument
##aster
Bill
Ontario
##by
share
##ta
Russian
services
environment
2017
violence
##ined
##irst
2016
##ilar
homeless
25
trust
bank
students
address
perhaps
tre
Islam
ban
research
completely
light
wanted
##ck
complain
destro
bur
Se
##onse
present
log
particul
special
##ES
explain
##iding
##fet
democrat
##asing
rules
stuff
resour
mot
simple
11
Put
benefit
fake
##ana
enter
sexual
event
##regon
##wise
White
##OL
risk
necess
involved
##OT
false
above
progress
Sec
building
started
boy
Pol
Those
value
resident
subject
Party
Also
##ocracy
Mar
coup
##hic
##AN
danger
##omin
age
whatever
reven
reading
medical
First
##of
Af
##asc
action
##joy
Here
known
freedom
##verage
lies
race
pick
##isc
##ped
Right
gone
18
ident
##erve
safe
killed
##ording
##ege
works
administration
plac
easy
demand
several
general
begin
##port
sold
Pro
benefits
mult
##care
worked
access
##fect
desc
##ows
conservative
##uge
guys
among
toward
base
activ
opportun
##ruction
employees
voting
enc
lose
##ault
Bec
religion
fine
expl
##els
##ering
##itor
chance
actual
response
foc
##oud
night
force
rates
##cil
##aving
Oregon
knew
typ
willing
##ned
40
##ledge
##AR
er
##ogn
##using
itself
check
GOP
ey
global
enfor
Gr
##irc
lie
West
Med
spent
div
##ails
prices
judge
##ept
giving
votes
Conserv
heart
assum
##ole
inn
##over
##iven
takes
Christian
IS
foot
More
##yc
contract
mist
##ourn
drive
unless
Sc
nor
hur
outside
Kore
leader
supposed
By
##ening
numbers
guns
groups
##icip
alone
science
bord
##ibly
##ively
##orage
THE
Great
toget
Because
fool
aut
earn
couple
Col
Does
Tor
together
##ross
require
Pl
weap
avail
asked
Sch
security
further
decades
deep
step
##ral
bal
Many
clean
##ential
immigrants
honest
City
bull
##US
trad
##ays
friend
tar
South
origin
interesting
##onto
fem
##asons
##arently
responsible
save
oppos
Ne
accom
ways
##sec
drop
attention
nat
##ata
candidate
eth
##ING
families
imag
##ued
##ones
Like
funding
While
culture
impro
energy
gave
##ype
##utions
belief
individual
##uction
##iversity
shows
subsid
average
total
##oe
##ley
hands
supporters
##ried
room
enjoy
Mex
##iction
realize
across
ball
Constitution
Den
break
##son
##ED
hit
truly
unc
Mexic
##ises
##ball
sen
##ortunately
##itten
##lement
happens
hun
failed
##ooks
hyp
faith
thousands
policies
path
Gu
profit
Toronto
After
super
points
calling
capital
happy
town
perfect
pain
Ad
former
forget
intellig
##rap
##yond
cur
created
##bec
##hington
collect
manage
##oming
##ension
##str
##head
mom
##ructure
purp
##iod
haven
later
##roll
however
##irt
Will
financial
piece
desp
##que
##eter
recogn
waste
loss
##owing
techn
##acking
available
##akes
similar
influ
prefer
leadership
##OR
##ney
abuse
circ
##ournal
idi
specific
quick
behavior
creat
ord
##fficult
##ript
extreme
##ished
Alaskans
justice
##ires
absolutely
##isions
NDP
sound
impact
reasons
suffer
choose
Get
refuge
favor
board
near
##utes
staff
##uals
write
##artment
front
agend
difficult
vehic
##unk
suspect
##ificant
Come
Que
obs
##chorage
forward
doc
scient
create
##sequ
Par
##ropri
liberals
written
rad
source
beyond
##ened
republic
solution
couldn
dev
ut
early
##uel
meaning
upon
four
##ablish
pull
##ble
##lear
saw
Ir
##allen
pen
##aul
var
hund
##oral
Cour
##like
hundred
tried
investigation
data
##EN
##erson
##ples
##eds
##ouch
charge
norm
built
Eng
##ugh
Globe
##iple
remain
##aks
##icit
Char
harm
##nect
##ining
express
object
##mp
prim
looks
priest
Cal
wind
fil
design
peace
##go
questions
qual
##omb
##erc
sales
Chinese
worst
anim
book
laugh
Putin
##une
cars
shot
travel
Justin
sort
##ero
avoid
resources
Anchorage
##epend
responsibility
profession
destroy
democracy
PM
##val
##ional
##bon
##ishing
##uced
type
anal
##ring
Min
luck
cash
required
assault
##fety
Man
##itional
Alber
significant
##cell
taxpayers
minim
challen
pun
changed
demon
##AS
hours
college
cases
##etic
##though
##angu
agenda
##edi
healthcare
areas
jo
##uted
gov
##oly
##ping
racism
changes
ce
Only
Dr
##action
carry
remo
critic
lawy
meas
Sorry
retire
##BC
##aries
parties
establish
traffic
link
late
##gle
wife
driving
rent
##arc
##amed
enforce
##rael
revenue
relations
corporate
##uit
Washington
##iation
##AL
values
appoint
60
phys
sum
held
considered
programs
Since
journal
deg
Ms
evil
Me
fill
Yeah
##onsense
flag
##iculous
hat
prevent
Rem
natural
Senate
growth
push
##azy
recent
vac
Another
altern
born
shut
respond
previous
funds
emb
figure
surv
affect
##set
forg
target
Syr
decl
obviously
brought
Sad
##sy
##eth
##aging
##ament
PF
discussion
interests
16
ten
Israel
pipe
sector
cross
grand
##ems
##ugene
##ilities
##uclear
dangerous
Korea
sup
##arily
ok
langu
earth
sick
rule
jail
##more
##hold
ground
smart
Federal
instit
sorry
Franc
west
totally
##oses
Muslims
expensive
period
results
bab
safety
##lying
none
concl
Wow
Court
exec
fell
##ills
playing
according
wal
season
approach
##osp
Bush
adult
##TA
Actually
ur
War
sn
shouldn
wall
union
field
hypocr
study
perform
moral
telling
proof
gir
popular
divid
Have
##let
claims
##IT
defense
lying
terms
vers
constitution
Car
Cor
##ination
doct
Ph
National
hy
pub
neighbor
##ij
Government
Fl
Paul
tem
defend
places
killing
players
##ster
Eugene
inj
otherwise
Tw
knowledge
opportunity
##lt
prison
LOL
understanding
Its
fault
funny
governments
businesses
Too
wrote
bish
street
crimes
raise
drugs
die
paper
vol
outr
proper
##ancou
##uments
Jew
net
pict
##arb
##enty
##levant
##rimin
Afric
credit
##vert
pray
hot
purch
##0s
charact
connect
describ
Count
stated
ridiculous
perm
forced
Big
##ological
##BI
necessary
reasonable
bat
innoc
passed
whose
brain
wild
From
##ancouver
vide
encour
concerned
welf
debate
##umn
##lig
easily
App
reach
welfare
thank
ability
dollar
##fort
thinks
victims
En
carbon
##key
Look
prem
##VER
consequ
Quebec
status
bott
thanks
include
nonsense
incom
meant
horr
walk
##how
YOU
homes
##ught
da
border
Vancouver
sounds
lots
nuclear
male
individuals
seriously
##na
review
17
##mb
##itude
bunch
fel
Ass
decisions
##yle
sin
disapp
hom
##pir
comb
equal
##ival
views
Would
investment
posts
finally
Naz
##gan
stories
articles
##orter
troub
13
Nothing
third
News
effort
development
##urs
##endment
cities
ess
wage
teachers
subst
14
Qu
DO
disp
##aves
ens
site
##iated
##iff
deter
usually
cust
weak
##ode
Ed
member
consum
Alberta
turned
##ained
alleg
Really
pet
asking
ALL
abortion
Brit
purpose
independ
hop
immedi
anyway
appl
##well
ment
Soc
prior
following
##icted
indeed
##enced
##ips
appropri
treatment
##irm
Wor
##rast
##rug
residents
Sure
appears
ignorant
Kh
massive
Law
putting
weapons
AD
mental
PFD
lat
dict
##irit
increasing
shame
und
zero
citizen
send
language
##anda
##uing
##atory
column
cop
body
##acr
entit
##RA
##ored
##li
##icated
exam
phot
##omm
imagine
teaching
2015
standard
##owd
damage
##itely
hurt
McC
##view
histor
Democratic
##irth
propag
##room
Res
##arian
init
RE
Sup
role
improve
negative
Dep
##tm
##uf
##eel
advoc
lived
serve
separ
mostly
##ape
500
happening
Francis
##olution
particular
##ification
practice
message
Unf
Their
replace
Mexico
CO
focus
Time
##iced
Co
##ift
worry
original
MS
tour
##ohol
moving
mere
particip
##rastructure
regarding
ideas
OK
maintain
caused
FBI
##antly
narr
convers
insult
opinions
door
##illy
quality
ine
fre
hasn
myself
Hope
##cohol
meeting
##avy
fraud
##ki
Medic
san
basic
apparently
##ocked
##ested
biggest
ignore
##acare
mother
##umpt
basis
decide
Denver
htm
Bern
cuts
##aught
##ado
concept
##enn
elimin
decided
sew
##auc
Obam
character
##ered
Su
card
influence
stra
prosec
compl
##oser
space
##esting
demonstr
fasc
negot
reported
21
Which
supporting
usual
levels
fired
##reci
prove
Russians
fit
failure
ahead
sides
24
blind
modern
legislature
uns
##ilty
El
rap
aware
surprised
positive
vo
##ular
increased
father
##oon
writing
TV
remind
attacks
##ceed
Gen
mouth
waiting
accompl
seeing
##erry
grad
##cellent
terrorist
cal
Spe
##lines
ran
conflic
Leg
pret
tur
hell
sil
Inter
reflect
infrastructure
##ners
fast
ren
estate
bought
90
towards
reject
##aa
##sh
reduce
##anced
extra
sources
wel
assoc
cry
nature
reform
##sych
fully
discrimin
Comey
mand
provided
##azing
meth
Post
Ge
currently
aud
elections
##oor
assume
Unfortunately
electric
anymore
regardless
##onic
##apan
English
##ucks
af
buying
gender
hosp
##ror
##oyal
mentioned
weeks
officials
##rain
conservatives
blood
##IC
Again
Germ
eat
NE
Reg
##ov
candidates
AND
custom
Pope
ded
cheap
growing
##ube
lic
##erate
##encies
ver
management
refugees
mort
birth
gay
reb
green
corporations
south
incompet
##AC
nearly
##rog
son
legislation
feed
UN
definition
gives
glad
accur
corruption
interested
##iring
whom
games
strate
##light
squ
despite
relationship
cat
##uty
##aughter
Japan
##iny
proven
##aced
reporting
Yet
Black
Inst
coverage
##FL
joke
starting
##uts
har
compar
recently
supported
guilty
bear
troll
receive
straight
ple
innocent
related
199
Rob
alcohol
roll
fan
keeping
slow
hundreds
snow
Ab
80
five
##raph
##oted
apply
##aft
plans
Obamacare
speaking
minimum
appreci
##ester
Walk
##iers
became
letter
admit
##work
violent
limit
secret
deserve
directly
draw
watching
daily
Once
farm
taxpayer
indic
##ulation
beat
select
##raq
female
##ression
Im
potential
authority
criminals
throw
matters
apolog
losing
##ales
##riage
##fl
listen
video
neither
stock
highly
goal
Pal
caught
lob
wealthy
continues
See
dism
sometimes
70
coach
propaganda
selling
crowd
##ION
Keep
cele
led
##oard
##utive
sens
##ients
enem
restrict
logic
twe
moment
##while
Gary
Ste
committed
##bit
East
intr
##aming
commit
Supreme
visit
Iraq
intelligence
autom
Civil
normal
key
stri
Acc
sat
##chie
student
liter
rational
medic
alt
plus
ready
##isis
assist
Hey
##ownt
international
host
wide
##ufact
Tax
##isan
sentence
enforcement
Very
##anted
although
tough
nations
coal
billions
psych
smo
rise
lay
engine
ON
touch
planet
effective
ACA
##gry
##iforn
Color
editor
##rench
received
cab
idiot
prec
SA
Fin
##arant
publish
Rich
##hh
statements
##ading
learned
consequences
WH
35
##ocks
Catholics
century
##iki
rele
##cing
possibly
disg
missed
html
Instead
career
Read
minority
##co
compared
died
ST
retirement
Other
progressive
degree
rob
##orse
integ
alternative
supply
stopped
impl
Both
events
##ple
voter
unlike
somehow
nobody
bishops
##iate
mine
##iously
##uana
ped
sle
production
##off
legit
Her
leaving
owner
bottom
##estic
hero
virt
posted
tick
note
##entially
##idency
Sand
fish
double
##oul
successful
ignorance
standing
standards
ult
model
counter
bother
clue
manufact
kept
topic
##icking
personally
picture
quickly
##book
##ban
advant
achie
##eren
island
greater
##hib
mistake
Remember
##gth
charges
yout
limited
option
##ijuana
Walker
knowing
Pre
forgot
communities
Arab
Californ
DN
##he
##arter
sav
anywhere
198
Coun
gain
organization
shooting
beliefs
##adr
##het
fees
Sounds
##arrass
##olf
document
crisis
showing
Iran
Sm
track
pock
projects
##OTUS
fighting
owned
belong
##LY
broad
##MP
suc
Geor
mag
plenty
generation
Conservatives
Colorado
vast
##zz
##verse
Syria
rout
emot
protection
fat
proud
vs
##HA
PR
deserv
##amm
recall
reve
condem
port
##ground
##LE
valid
park
opposition
various
wit
Cent
##uous
definitely
la
Governor
Air
dream
downt
determin
congress
page
##ores
fellow
Minister
experi
funded
Hon
##pective
##know
controll
excuse
opposed
dom
training
Never
##II
##oring
phone
##ager
looked
##enses
conditions
multiple
spread
doctors
##igr
names
Jud
educated
deficit
eyes
moved
incident
##raid
Alaskan
played
oh
bea
##arely
professional
weren
##oting
shop
##anch
disaster
trouble
##den
Mor
jump
##cer
##inking
guarant
mer
Bet
accident
newsp
##oles
California
intent
attract
dogs
##ris
wages
Christians
raised
tend
embarrass
Saud
##rees
expected
marriage
IN
speed
neighborhood
environmental
King
excl
##ysis
roads
##lo
bias
warming
Conservative
bag
toler
thus
NA
cops
notice
constit
consist
CP
interp
asse
Germany
NFL
cares
##ahah
streets
##ancy
##inary
lands
##ague
immediately
highest
##usting
officers
vehicle
stick
agreement
bomb
balance
TO
celebr
privile
Ken
shall
univers
particularly
Nice
positions
ADN
##iant
sacr
##ien
##ittee
dele
Port
priests
##unt
becoming
##cy
eye
search
Dis
bigger
##cial
below
##manent
dumb
fisc
movement
afraid
bankrupt
politician
Somet
rat
cyc
crazy
primary
district
pack
Mich
shown
##essions
June
pros
##iful
##iles
removed
Social
winning
##ucing
##ests
##dy
catch
Anyone
propos
tired
treated
##ady
acknow
##ST
technology
minor
legislators
##ext
##bing
profits
employee
Take
democratic
mach
six
native
increases
firearm
calls
pension
##ustain
Should
minutes
sun
official
Seems
displ
lit
dig
irre
doctor
content
cow
Senator
god
drivers
County
##esh
Je
pipeline
university
##ID
pays
French
vet
suprem
humans
##lier
helping
taught
##airs
Commun
size
##athy
courts
##gers
math
efforts
chose
cultural
reports
entirely
systems
penal
##ushing
council
divers
Dav
driver
quote
emer
##cience
allowing
independent
spo
steal
products
kick
perpet
Native
holding
##aded
mayor
##ss
animals
proposed
##20
round
Council
attend
eventually
skin
Mat
changing
webs
terrorists
Bre
##rel
##ET
##eck
depend
Left
teacher
fly
relative
##ding
refuse
196
generally
integr
unions
##OW
##peach
ath
context
parts
conduct
football
mus
sports
terrible
broken
##back
lol
critical
##uting
fle
##reh
ride
produce
downtown
trib
skills
York
analysis
##eless
mid
##imately
charged
##IA
therefore
choices
becomes
screw
existing
Khadr
online
BS
fuel
##gage
DA
Elect
transport
##af
somewhere
extremely
hang
197
implement
commer
##istan
##UT
Bernie
##ina
Mart
##ze
BT
lines
outrage
mater
merely
##inks
##ophob
marijuana
appropriate
##ulate
prepar
conversation
##to
University
Sw
British
##oman
greed
surprise
##AA
headline
##anned
politically
officer
##enous
##CC
Stop
seek
construction
advantage
##ps
added
Ser
300
spin
spirit
store
##iment
complex
Coll
##irty
province
eg
esc
##band
##wood
circum
beginning
Sim
helped
ep
##ynne
##aur
##adem
hire
##awa
books
##ILL
World
hus
served
Prob
spot
##aled
##uary
burn
box
interview
Fox
remove
empt
included
##incial
predict
witness
pure
largest
welcome
recomm
##ifying
Cap
ste
Polit
##ears
##my
ice
exerc
BTW
fans
affordable
##employ
##idge
scientific
CN
##iped
baby
Nob
keeps
sews
confirm
morning
easier
dump
posting
pan
missing
punish
##astic
hearing
unp
NY
requires
Bar
##orid
##icks
intellect
Health
announ
labor
flu
amazing
yours
sitting
##aker
silly
seat
##dom
##umption
Goo
perspective
Legisl
##SA
##orrow
22
##ray
heads
##izations
##50
conflict
##illing
comfort
Mur
twice
internet
youtube
##ctions
firm
strug
##igenous
opposite
interpret
ISIS
Mass
George
odd
ideology
High
partisan
bills
bigot
breat
Mark
providing
via
acts
##isy
recognize
##unny
showed
WW
contact
Ok
electoral
radical
##usive
tact
Mayor
##seless
Ott
Interesting
suppose
vehicles
##inet
includes
Western
entitled
##ables
##iar
regular
Try
hardly
##ander
expense
Everyone
method
##itable
##vey
desper
hatred
deliver
reaction
##ada
##acity
star
basically
##hetor
Cle
teams
democrats
percentage
##ossible
##asion
##ka
argue
##orney
north
designed
Second
##eration
lif
##aven
lawyers
Kell
leading
plat
anybody
elsewhere
larger
tool
##VE
writer
accurate
deny
style
promises
dark
tit
##wards
accus
fiscal
Sanders
houses
feet
advice
##omen
##ously
conspir
plain
##ille
cens
incor
##IG
version
release
trash
bed
compr
##arth
healthy
creating
uses
concerns
Kim
##ipping
Te
everybody
Saudi
extrem
angry
settle
employment
promise
rhetor
##ilit
##agan
Wynne
direction
CBC
##icide
occup
table
excellent
serving
princ
repeated
studies
resign
Mean
grab
comput
##iable
wonderful
garb
print
decent
Oil
parking
likes
attitude
##esides
dealing
lawyer
AG
final
effic
believes
plant
section
fing
unemploy
voice
offered
felt
hide
##iance
##avery
dise
emp
forces
##onna
Hawaiian
activity
##reet
join
legally
parent
arrog
Aust
##itter
intention
##istics
mov
armed
Could
##AD
Pat
republicans
rural
shel
##bel
types
agencies
##here
additional
intended
measure
flight
00
##ocking
##osex
shar
II
Middle
##atican
deaths
inside
Dems
smoke
resist
expand
occurr
bike
march
Sl
ourselves
##erous
##ription
remains
closed
##nic
quit
gold
nut
commission
impeach
western
assert
impossible
domestic
trial
function
color
##IL
##ams
##gl
handle
##PD
##apers
informed
covered
School
Green
Joe
Google
##men
##uries
##urd
regulations
bure
smaller
##mber
unw
terrorism
##andal
communic
tells
adop
deport
dont
ensure
Tex
vill
##owers
dish
executive
liar
##MO
##ulated
cool
Cont
diss
wars
website
##ett
presidential
earlier
husband
wear
planning
Amendment
surr
forever
entertain
tro
SB
racial
Give
##ma
powerful
##amental
react
##essed
##aucr
favour
observ
literally
banks
##just
Islamic
##izes
date
pu
##issions
followed
Two
bringing
rape
##esterday
appreciate
margin
Ma
credibility
cutting
boys
CNN
chief
##verty
garbage
empty
applic
rig
poverty
Wr
##ky
European
##iled
adults
county
ANC
cold
flood
##rd
##amb
married
continued
promised
miles
##ev
Inc
domin
Vatican
annual
republican
crap
salary
purchase
flat
oblig
signed
institution
##utiful
symp
Mo
##apt
supports
circumst
compass
##ids
##ounded
lobby
challenge
theory
Fund
lets
ignored
academ
##ique
##EO
##OO
causes
identity
##ressed
broke
ownership
strategy
dismiss
arms
##ulu
physical
##inform
Hopefully
##EC
cast
##ef
manip
readers
##bed
purs
Last
motiv
lied
2014
Department
savings
allows
narrative
duty
hospital
Trans
##stream
department
bureaucr
outcome
##ahu
accused
##RS
examples
ended
susp
Public
##onc
Gov
##ipped
Hum
relevant
Ottawa
##icial
fort
Apparently
Make
range
specifically
##la
Holy
compens
Still
cell
okay
utter
payer
##asy
acting
options
POTUS
##outs
##itation
der
##oes
referring
substant
##osen
protected
##AY
everywhere
released
considering
rock
lear
reduced
typical
##ront
##otes
hac
illegally
exists
Jews
sleep
##aked
scr
approval
fant
##pped
publicly
##iders
weather
Nazi
Wall
info
provincial
survive
mir
sustain
alive
soft
Exactly
Jan
ship
suffering
scen
somebody
center
gang
newspaper
qualified
##ago
editorial
pressure
Fair
##illed
encourage
##others
Africa
Ant
Es
driven
Def
mix
decade
block
##respect
aggress
daughter
##FTA
polls
finding
cheaper
justify
feeling
2nd
claiming
patri
##archy
performance
fed
refused
MSM
Unless
photo
Jim
pathetic
summer
sudd
Justice
older
dividend
controlled
sudden
runs
intelligent
subsidies
David
##lin
Nor
Frank
credits
bond
NAFTA
separate
solve
hypocrisy
##andon
##ung
administr
##post
approved
Uk
emails
premium
gonna
honor
UK
yeah
latest
Over
Hit
Tod
Chief
##mon
apart
NK
irrelevant
sale
details
Bu
learning
##aph
Meanwhile
##ties
45
thoughts
sites
aside
email
discrimination
##aling
manner
Nobody
prohib
capable
weapon
Mill
slavery
##ERS
accomplish
##ench
General
coff
equival
HA
##inces
behavi
reference
disrespect
Step
obst
background
core
chem
##omed
Think
TR
cancer
published
##ME
legitimate
Island
constitutional
register
advis
##liament
busy
integrity
##xic
presidency
offensive
##ael
defe
governor
comparison
AL
OF
inher
Obvious
developed
##mar
##ipedia
historical
##erman
##rial
##uell
IT
Bur
MP
conven
minds
appeal
##ads
Em
equally
##time
truck
trip
Ukrain
wearing
rhetoric
##ikipedia
wise
Add
Boy
SO
##ron
Police
walking
blow
conspiracy
civ
##wide
##atically
yesterday
##olulu
Texas
managed
match
ru
##orough
doz
##iority
##iling
ANY
Ro
gradu
##rated
##gment
spl
##ented
saved
Lea
reply
girl
##ograph
gotten
expert
##inci
##standing
trail
Same
supremac
advert
employer
##ums
Mike
incred
introd
max
Commission
traditional
effects
mal
##vention
insist
criticism
##asty
draft
nomin
##isa
##ivity
incompetent
beautiful
solid
desire
earned
Viet
animal
frequ
comprom
fee
defic
Kelly
reserv
solar
##oples
DNC
##inal
addition
Tell
starts
raising
protecting
accepted
mortgage
properly
Ah
stands
inflation
Unt
distract
horrible
mad
##gency
##ghan
limits
regime
achieve
organizations
Red
Rec
minute
enemy
##itarian
drunk
factor
AC
##onym
returns
##amer
EU
label
##ume
##ker
Isn
loved
##aining
##nn
markets
scientists
girls
turning
brother
##PA
arguments
destroyed
##udes
breaking
mob
##rength
throughout
pushing
suit
Mont
onto
seats
##oof
urban
##itz
veter
Us
capacity
nu
filled
Given
Dan
wanting
##tered
negoti
Hmm
renew
According
Care
compreh
na
establishment
unfair
Having
##erk
clown
active
Funny
ends
Rock
BE
platform
useful
France
biased
player
Prot
commercial
condition
engage
oppon
##fficient
AK
series
judges
contribute
##essor
fundamental
greatest
disgusting
minister
temper
Face
Obviously
Att
competition
crash
claimed
convicted
tiny
arch
thousand
electricity
destruction
tweet
Honolulu
femin
PC
400
##nam
##isters
upset
drink
23
loud
alleged
coast
confer
hoping
blog
conclusion
Thom
##ounding
disappoint
dad
Ale
##mit
payments
useless
compassion
##ENT
signs
flaw
mentally
strength
winter
Until
exch
##ville
grade
passing
##field
acceptable
accountable
Afghan
constitu
##kers
##anes
Reagan
overall
BL
stuck
citizenship
exempt
promote
abandon
closer
license
##aldwell
activities
##ota
hired
LI
lock
addict
trait
provides
transfer
beg
generations
Hell
Medicare
east
##ubs
fewer
aid
discover
##iday
##asm
##resp
Austral
brand
##CR
mail
assess
largely
##uded
harass
##cest
##crib
thread
Brown
prepared
perfectly
##owski
##ermine
cate
hol
multi
Indian
##ius
defending
Jeff
None
##ART
Union
fought
##isf
clar
dropped
socialist
##lers
slight
##ockey
##ressive
##uma
transit
##nel
Ben
Street
determine
ticket
cats
minded
MA
amb
ethnic
mount
blue
began
aspect
cabinet
persons
wins
investors
display
unable
agreed
pretend
##real
##ailed
established
pointed
##uh
scream
##icing
princi
27
practices
circumstances
drag
##gu
swamp
##ein
Martin
3rd
economics
committee
dishon
poorly
recommend
Today
James
##iveness
Intern
offense
Conf
involve
goods
tort
incent
buildings
failing
##ooked
##ception
Jewish
dirty
named
Off
peoples
##annon
##ogue
text
Better
Des
EVER
hole
scandal
##whel
75
records
Secret
Park
expenses
diversity
schem
Hitler
anger
agency
##ino
constantly
borders
African
##unte
1st
Pence
accounts
Earth
computer
noticed
amendment
deals
breath
Times
##dr
##CE
puts
suggesting
##ship
pointing
Bel
appointed
hair
consult
sett
mainstream
soldiers
lucky
##ᴵᴵ
youth
sole
##stood
outs
excess
##enders
elite
admitted
material
28
##tery
scale
phil
saving
attacked
sand
solutions
##abis
capt
##osure
overse
era
##iber
leads
weight
seeking
Someone
Card
heavy
immigrant
##UR
Ter
##raft
##aire
loyal
150
replaced
Next
CB
herself
99
ballot
myth
exact
Caldwell
disease
##eer
retired
Serv
##uations
##alling
Seriously
##pper
Has
battle
##yan
##ensions
Prov
##HING
deserves
letting
NAT
unn
Rights
confused
Lat
condemn
oppose
Person
acqu
Nazis
CEO
ble
burden
Lord
2013
quiet
tim
Trumps
##plom
customers
americ
##gar
##isher
##life
orders
##olly
repeal
oce
##ctr
code
eh
Free
GDP
hey
2008
##otic
##them
restaur
passen
supporter
phr
resource
26
Prime
Security
True
Richard
helps
smoking
##osexual
Medicaid
exercise
Spr
bub
plants
warm
Lyn
assets
Regard
permanent
sport
ethics
##lling
watched
eliminate
wood
San
believed
institutions
fairly
Being
##mas
rub
suicide
Without
essentially
##ossil
Bob
balanced
Vietnam
distrib
##ux
badly
sight
necessarily
Rel
feelings
##dro
overwhel
##cient
transpar
threats
interfer
neighbors
Juneau
equality
Nations
throwing
Art
idiots
stream
err
MO
##uls
produc
volunte
posters
##yl
##fs
##itors
banned
##iev
drinking
##vest
##pel
Ev
ya
writ
journalism
plane
causing
answers
incorrect
##hen
parish
Day
racists
Probably
music
title
stage
poster
gather
##elf
Such
feels
arrested
hall
##attle
listening
Fact
McCain
##ueller
##agn
repeat
Robert
##house
THAT
Op
Lear
privilege
Michael
migr
teen
##ulf
##appy
Under
swe
##mod
decline
Clark
##idden
Lisa
dying
Palest
bigotry
India
illegals
determined
obtain
foolish
falling
surely
ignoring
blaming
Home
eight
##atures
##ews
acknowledge
harder
disappear
speaks
numerous
ec
courage
meetings
constant
Portland
##orate
##aces
initi
Love
cart
##jud
Although
##law
gross
vacation
##umber
stupidity
##icago
Str
narc
Found
movie
CO2
chosen
provinces
colon
associated
region
patients
##ston
sea
leftist
transportation
worried
##acle
##tenance
smell
##encing
##oncos
error
Afghanistan
file
##alt
pitch
##iens
pocket
firearms
substance
boss
fossil
species
airport
complaining
Sat
deduct
leaves
Sadly
Rail
Pet
embr
##KK
Id
explan
proposal
insane
Star
industrial
curious
boot
##ashing
heat
##ya
breaks
Women
band
Mueller
Hard
##idel
disci
denied
noted
experienced
Out
estim
fixed
##gly
##urg
din
##equ
legislative
tempor
Tre
chemical
##PS
illness
diplom
##rection
DE
Except
CA
Board
experts
severe
vul
gains
deflect
loser
ton
trick
athlet
##ords
QB
##ona
##usions
##ecess
decre
machine
eld
##esty
dictators
exposed
Gold
spons
entry
##icr
##akers
pil
##neau
fascist
fishing
absurd
explo
Yep
suck
attacking
operating
Jack
advance
described
##gling
Chicago
objective
##eb
##ceived
##abled
##ulations
grown
setting
##going
##under
##och
Further
##unior
divor
##ih
checks
##nes
##put
##resents
emergency
sover
behaviour
pregn
possibility
##GB
lifet
trees
identify
Bannon
##hab
existence
hockey
categ
sake
Fake
##kowski
careful
##arsh
Arabia
indigenous
sky
Sessions
Legislature
##retch
judgement
wake
bears
blacks
occurred
##overy
##osers
troops
maintenance
##pan
emissions
satisf
instance
describe
ele
uncivil
forth
Broncos
##ogy
turns
##what
damn
proced
screen
penalty
motor
##pping
##olen
Way
statistics
structure
Bank
disgr
salaries
pig
uncon
exception
station
meat
amounts
##point
Bud
mun
##oha
reward
##astr
Shame
portion
discour
Tom
Agree
Nope
golf
##MA
remar
ruling
symb
merc
##ructive
protesters
assistance
ske
##att
stores
represents
accommod
hunting
Johnson
picked
##inct
forum
donations
destroying
jur
humanity
48
WE
wiki
##ooking
buyers
Best
sharing
principles
corner
Bay
DC
loose
tradition
##IR
##itals
attorney
sched
presented
Clearly
fue
##imb
notion
applied
mut
sending
classes
mission
termin
mandate
Assad
##aly
##istry
image
regards
radio
Gee
connection
compare
Oahu
muslim
trained
bound
##road
opportunities
virtually
unemployment
Abs
tom
senior
ending
pra
collusion
##oler
Hist
reput
Either
deficits
conscience
eating
continuing
worker
KKK
occur
refugee
soul
payment
##med
##ection
Charl
mistakes
Val
whites
defined
logical
Bish
##ette
heav
ge
German
2012
strike
prime
##ashed
##erg
quarter
##OS
##ugs
Peter
goog
grew
taxed
pool
Billion
Murkowski
vision
measures
produced
neighbour
location
attempting
doctr
punishment
##izz
bod
##rove
##utor
##wor
##ansion
contracts
philos
##kin
##ortions
employed
Neither
Sar
somewhat
##orida
flow
Father
lazy
Int
switch
flying
##ophobia
bird
lady
rain
attempts
SC
scam
calc
sanct
NRA
heck
presence
prosper
Mail
##oop
affected
65
NATO
blat
warr
Morneau
##ita
Ins
Otherwise
hiring
powers
pulled
Facebook
Lets
wondering
Looks
##21
##athers
ugly
##oster
##awn
##stein
##asters
aim
pope
Tur
wikipedia
Indeed
Kind
ain
kinds
sees
boat
lesson
symbol
NCR
UH
##icians
rough
documents
session
focused
CIA
dial
reporter
theft
discl
nasty
adjust
remote
unfortunately
launch
Real
transl
operate
##pass
succeed
##ached
Old
assuming
##agers
exchange
##andering
contrary
##aint
bath
endless
Ha
central
##oz
Roman
##onald
##anny
parag
stolen
Ukraine
Pay
##place
effectively
irr
##itical
Cub
##ham
river
allies
seemed
rejected
threatened
##greg
fails
repeatedly
facing
##down
understood
##uits
carrying
Nove
bail
Check
demands
hopefully
Florida
##PP
Japanese
##night
churches
##estr
unb
relatively
##TS
investments
burning
bright
insight
##iser
contrad
foundation
##icken
Crum
murdered
Wait
journalists
Pretty
pushed
Imm
Sa
sarc
extent
prev
followers
situations
##ixon
##ios
##ms
Agreed
yr
##ashion
Paris
install
ultimately
##ivan
pockets
manufacturing
suddenly
Mer
toxic
treason
equip
compensation
##berg
College
##aste
Steve
##ha
depart
CH
traged
crack
ID
##KE
##ifies
confidence
AS
victory
##ultural
Finally
##unction
yell
wasted
##acing
Super
##eness
nowhere
surprising
facilities
November
thrown
horse
fresh
secular
lawsuit
##craft
##sters
Corpor
brings
delay
bully
##icious
##eria
misle
ought
parks
placed
rot
1000
familiar
##rich
Something
plays
figures
rally
overs
bubble
##11
Guess
whining
habit
lean
receiving
lifetime
Mon
GO
Ryan
Stephen
credible
FOR
##anity
bom
Thomas
Phil
Bra
simpl
Wal
fashion
riding
##uk
rising
addressed
Seattle
finger
cannabis
Sund
##rovers
philosoph
losers
##iary
Whether
lowest
RG
emotional
writes
rein
ash
adding
camer
Sometimes
naive
denial
##uns
talks
HE
desperate
##stitute
##RC
users
gift
##bart
2000
##coming
differences
babies
##aken
maxim
##olve
export
worthy
club
reducing
forest
command
auto
pupp
tank
hack
##agon
##GA
frust
Watch
tow
employers
items
handed
##aires
Australia
lane
laughing
remark
equipment
Especially
tree
##asure
Ever
appar
friendly
overwhelming
planned
explanation
forms
Life
kidding
Had
sheep
govt
picking
guarantee
##respons
trig
violation
paragraph
weekend
Imag
scary
cler
males
stretch
commenting
conference
hill
strange
premiums
##igration
goals
ri
talent
##ders
##estyle
##iently
regulation
##erly
suggests
Doesn
rely
##acc
opening
heavily
Fre
neut
BLM
delusion
Didn
twist
request
suggested
compete
Administ
cycle
Mary
operations
Charter
##oms
enemies
##imony
significantly
contributions
Nixon
load
younger
coffee
##isd
sem
controvers
##LLY
resc
Bible
disrupt
narciss
slaves
minorities
correctly
phrase
2018
comfortable
Sull
TA
Spirit
revenues
combat
cake
beer
creation
ongoing
applies
Win
surf
buck
##uke
chair
schol
advocate
route
honestly
recru
lunch
##ONE
Much
awful
lifestyle
##ortunate
labour
hunt
inev
barely
Young
overt
##agger
offering
##iam
requirements
incompetence
##bl
dress
NEVER
reduction
universities
scenario
priority
##force
spiritual
equivalent
cant
cas
shared
branch
RC
cert
ocean
rarely
Bus
##ocal
household
Poor
spoke
intellectual
Gos
stocks
rif
prejud
crew
legacy
len
##ware
2010
Sullivan
peaceful
Foundation
##olved
Charles
Dou
Wonder
spr
unlikely
##ictions
DP
##ronic
memory
confront
award
ARE
concent
precise
faster
tR
spew
overseas
Back
headed
##df
##usted
grant
glass
threatening
loves
intoler
##IM
ties
accountability
strateg
Imagine
##owed
depends
2019
Christmas
safer
unique
aircraft
Hy
Syrian
Prof
Before
##IP
##igned
Comp
Ill
superior
Tim
shr
principle
discipl
taxation
poison
accusations
wa
partner
##BA
loving
ordinary
Educ
Absolute
hiding
Fly
##abb
upd
units
Christianity
January
Dec
storm
forcing
snowfl
Judge
latter
Miss
zone
wash
corporation
wildlife
representative
recover
arrest
constituents
payers
firing
productive
Lots
ven
ow
favorite
accomplished
crying
consumer
consumers
industries
##board
unre
commentary
irrespons
weed
liked
##apse
tactics
29
protesting
combined
consistent
rental
Wrong
Sal
Typ
mainland
coward
unnecess
cod
aliens
judgment
medicine
quo
secure
protests
Si
##ifice
floor
depl
trend
##uable
##oning
##kel
Che
##chan
guard
Global
participate
HART
##cast
Leafs
Spring
##itudes
Glad
pal
ancest
manager
fools
rant
consent
Pac
Sy
Congr
##lets
champ
liberty
##esome
##urric
convention
retail
homosexual
preach
index
EVERY
AM
junk
##iner
##azon
distur
faces
tragedy
##DS
##inated
recession
stating
fi
##ctic
boom
##ula
tight
March
Secretary
##inent
brut
Marx
municip
Mal
strongly
writers
developers
Excellent
universal
rare
residential
previously
Palestin
seven
expansion
progressives
dry
Chris
script
##GE
Bomb
33
king
deeply
Tot
##iors
bridge
proceed
brown
##lled
apologize
links
tens
##lical
google
registered
AT
##rol
coop
unfortunate
societ
religions
permit
interpretation
Camp
Sunday
monop
efficient
CAN
##soever
Far
##origin
patient
competitive
Center
forgotten
##opath
eval
expression
River
faced
Mac
communist
checked
trigger
##bish
Citiz
web
Ford
hier
demanding
compromise
Say
neo
##onn
blah
July
brief
factors
hotel
##add
attrib
Jr
requirement
Wil
##ean
degrees
Talk
tear
bump
purposes
abused
academic
##itbart
league
Plus
talked
mechan
fisher
investigate
boo
IF
arrogant
##asket
Little
##orne
##ildren
##aska
regularly
vulner
600
deleted
Consider
LE
mile
primarily
merit
Hall
##quir
pollution
hyper
narrow
supposedly
till
##gender
gras
36
brib
bog
##right
counsel
trillion
task
Lynch
Got
32
viable
prayer
worship
suggestion
shelter
Besides
tRump
rank
yard
behalf
Sun
##orable
##antic
disgrace
nom
holds
civility
strict
ruled
scheme
sooner
pdf
##fall
whatsoever
mentality
Lead
Whatever
Office
2011
clergy
Mul
dare
sufficient
controls
LGB
##icyc
directed
##acies
Britain
Jose
dude
Truth
dishonest
pensions
##cel
meaningful
ramp
##RT
contribution
lights
Freedom
Sing
bell
SU
temporary
chann
Mexican
knee
define
##ancing
Nation
194
Oct
##cription
proves
proportion
##hips
##erning
##urally
bishop
bon
backed
motion
Peace
vacc
partners
bless
##apped
cite
withdr
##the
differently
listed
approve
##gs
cha
Certain
master
forb
recip
Libert
finance
convince
wishes
Dire
operation
Dist
ego
Ask
Columb
Tal
wasting
31
Alex
gut
promoting
losses
classified
ethical
Zuma
CPC
##isons
hospitals
wis
testing
fantasy
Aug
jurisd
cloth
##informed
representatives
LGBT
senate
shift
##acked
openly
Personally
doors
settlement
##illiant
##HAHA
warning
lau
essential
anthem
pharm
territ
##UST
highway
Supp
##qual
irony
Pu
##ibilities
250
pedestr
pieces
element
offers
rapid
director
##OC
stats
alien
##reek
realized
restrictions
apology
authorities
injured
Pen
addiction
tweets
stealing
dece
08
55
Pot
sue
centuries
Sur
##oooo
carefully
shooter
##inging
charity
##mbly
fortun
recognized
versus
consideration
moderate
alarm
stress
steps
letters
resort
clin
monitor
195
##ication
beach
opened
800
stood
preced
increasingly
Start
##azi
allegations
##laim
believing
meaningless
tourists
enact
winner
silence
song
survey
IMO
Cardinal
CON
besides
impose
misleading
##ok
CD
pattern
LA
##ils
jury
declared
dictator
##ograp
consens
heaven
##uding
excuses
##eous
criticize
nuts
ONLY
Latin
##LD
##inced
offended
factual
pump
anonym
helpful
##cious
struct
##ounce
guaranteed
screwed
aggressive
Absolutely
division
nose
##ara
dividends
Del
SH
risks
facility
rating
##ingly
toss
##ondon
##incere
Scheer
backs
elites
innov
farmers
revolution
guilt
guessing
rush
EPA
Twitter
Lee
lad
cruel
2009
veg
wheel
##ATE
connected
silent
revealed
##inge
everyday
defeat
Yup
replacement
##outing
tomorrow
lun
wed
investigations
Burke
##ulating
socialism
##irgin
slave
organized
Dear
Nat
testimony
Constitutional
capitalism
##itage
##rooms
opponents
##inely
##MG
##ifications
assessment
length
deem
Di
##ardier
emph
acknowled
fab
##usal
reporters
issued
audience
dram
193
##uate
FA
Rather
ju
lift
libr
##angers
agents
##ilarious
reputation
adequ
Climate
Administration
educate
Permanent
##phere
injury
expressed
isol
##odox
WWII
hateful
greedy
cou
outc
Stud
valuable
Media
OR
convinced
gent
covering
abortions
granted
##ieve
fires
##othing
cultures
qualify
sustainable
intim
ONE
Confed
Call
##rod
collapse
description
beings
professionals
immediate
Gard
##ano
root
DACA
##banks
veterans
consumption
locked
papers
selfish
internal
Montreal
wisdom
noise
sacrifice
bicyc
Net
Amazon
Jones
Lane
pictures
adopt
traitor
##ses
shares
##onies
syn
Surely
stops
campus
Everything
Asia
dirt
sympath
pard
drain
PERS
contain
Friday
educational
Da
sir
extract
identified
customer
##list
##lessly
feds
Mil
subsidized
History
Aff
earnings
typically
##isive
##aine
remarks
01
ho
##uration
engineering
unit
camps
Eas
Human
##orship
McG
owns
stopping
teachings
detail
barrel
laid
righteous
##oom
reasoning
irresponsible
##arge
##oration
bucks
sadly
complicated
tied
loan
Leary
Parliament
remaining
YOUR
##row
playoff
distance
vulnerable
bow
##iform
walked
journalist
##rate
##OM
accepting
Navy
pipelines
unnecessary
creates
analy
London
Sam
passes
Ted
##aha
properties
Certainly
straw
Fam
tone
##ighter
Hil
##arians
soci
infer
genu
stations
Kl
concerning
Ric
Plan
split
Milit
thru
window
Flynn
photos
##reens
serves
opposing
slowly
spoken
##arre
surg
finish
reached
##olves
conce
enlight
##uster
assumption
boards
##appropri
bait
##aug
affairs
announced
wre
Progress
Money
##andom
figured
doctrine
##xy
##ora
dies
instruct
nomine
Note
##inction
investing
surpl
huh
attempted
sympathy
fuels
tries
disord
Ang
England
Prem
disabled
hyster
activists
09
Ener
##me
Econom
About
GM
La
Ra
referred
reck
denying
Ka
buff
carried
arguing
Fairbanks
Guard
entering
collective
##holders
EV
Steven
07
##mo
offices
##CH
returned
trading
stamp
appe
##stitutional
Ac
##ollywood
Relig
##TH
transgender
Mel
TRU
roof
##ctors
flawed
personnel
clueless
marginal
apparent
dign
Bombardier
Rom
borrow
##iency
Must
##com
conviction
Were
##rey
##state
Breitbart
##dling
##oned
endorse
demonstrated
Scott
dozen
EX
Junior
elderly
VA
imper
score
trolls
cents
##atulations
outright
presidents
pulling
Typical
salmon
Korean
06
dime
engaged
precisely
Rome
biz
##osition
army
addressing
Prop
solved
##pled
governing
civilians
basket
belongs
representation
ashamed
Energy
ham
chain
developing
importance
##onom
Army
ideal
Him
pages
bodies
Hi
humor
Service
##rep
relief
consistently
orient
butt
attended
##iverse
falls
dod
outd
deliber
cig
mining
thats
brothers
gotta
haters
bombs
municipal
financially
supremacists
elig
divide
discussed
struggle
migrants
aka
##kins
Butts
famous
Div
Pacific
conclusions
magn
03
spite
generate
challenged
network
bankruptcy
MAGA
initiative
Ber
cards
ours
Always
scene
Vote
entertainment
tun
flo
professor
copy
Senators
withdraw
proved
drama
depending
goodness
invested
mirror
NOW
bullying
raises
Wel
Therefore
colour
IM
NH
##IGH
AF
During
esp
SS
##water
Grand
responding
##mark
dear
frank
##endum
repair
trucks
Fire
shocked
overd
moves
Thus
morality
practical
Smith
announce
chances
Men
hi
shopping
##ato
stronger
Vict
hidden
##ania
##ective
square
##eland
##riend
arrogance
barg
##ford
fields
tolerance
Mad
##ICA
##ensity
locals
impression
waters
morally
wow
##urt
incredibly
pride
700
grid
sidew
##rier
emotion
interference
condo
##uition
##hand
genoc
groc
blank
advertising
Education
##alo
embarrassing
crossing
frequently
##acon
existed
suffered
village
Apr
oath
##acred
subm
inequ
sanctions
agent
Committee
Swed
respected
statues
complaint
initial
shape
delusional
Lou
Sarah
upper
Sept
investigated
Protest
Regardless
dinner
Water
commitment
Business
lanes
models
##regard
Roy
uniform
royal
random
depth
toile
2020
generous
Desp
incap
Crime
fet
om
dependent
solely
insults
Bad
tools
tires
justified
confident
pit
Ange
Maj
05
bid
gall
ther
thorough
stance
missile
dimin
involvement
emphas
##kn
complaints
obstruction
CC
##ifa
overl
electorate
explained
entitlement
Long
##tw
masses
discovered
tyr
##ques
##NG
##utors
##adium
elev
contempt
childish
deleg
##thood
##oros
Shar
murders
Bell
Iv
##ulture
greatly
Mot
##thodox
##viet
reliable
assertion
Assoc
deeper
paint
##tering
##10
##fol
kneel
soldier
prep
Asian
Lab
hits
##anged
advanced
toll
obama
##ez
##acks
grounds
endors
choosing
Hollywood
unh
tests
hanging
deadly
Fed
Wild
user
reminds
tickets
milk
##gary
##aaaa
smug
restaurant
##een
Hawaiians
baseball
Okay
Show
islands
ratings
canada
evident
jerk
##urday
skill
##orted
##bal
theology
ie
outrageous
dedicated
virtue
Pop
scared
freedoms
##erto
elit
slaughter
atm
##agic
populations
##mail
confirmed
princip
##abilities
hadn
Clintons
THIS
chaos
August
##lishing
competent
suppl
rebu
committing
recovery
Feds
##mond
veto
##TF
inappropri
Rev
##ternal
Os
whenever
##ologies
##ILLION
##roc
Capital
negotiations
sister
brag
struggling
hurric
weird
landl
##esc
liqu
improved
##edy
actively
questionable
odds
sweet
Mos
documented
resulting
Met
pill
finds
4th
reverse
counts
answered
fits
stead
Up
hence
loans
kicked
dys
obsc
##iat
Lol
hydro
intimid
Ann
wave
fulf
Joseph
Siem
Andrew
ordered
##original
##TER
untr
challenges
##oln
impeachment
disappointed
End
mandatory
##ador
##ober
neutral
spray
Elway
gap
caring
insp
automatic
##rete
pretending
Teach
beating
Land
##SE
globe
April
torture
refusing
optim
sorts
trusted
item
finished
demonstrate
##works
AP
perceived
expecting
enjoyed
stake
enorm
ads
invasion
mainly
Er
nurs
clothing
irrational
SE
dislike
que
presum
resulted
occasion
BUT
Offic
Rog
Went
closing
taxing
speculation
##incoln
Indigenous
priorities
lacking
mercy
scholars
PE
Rac
fif
click
Saturday
mong
##elect
##orthy
Sub
killer
deliberately
Uh
cited
##stone
##arts
addicts
37
95
charging
fairness
persec
##evin
Veg
##ches
grasp
Ke
potentially
EN
##ALLY
##enz
insulting
slightly
Pier
physically
magaz
##uties
billionaire
utterly
commenters
variety
##UN
##ographic
##oride
budgets
hook
sincere
quotes
blatant
regulated
discussing
hacking
harassment
affil
buddy
passengers
vent
defence
##apping
extremists
feeding
philosophy
wann
##verted
discount
apartment
Country
##vor
christ
##information
02
Point
guide
ME
film
stayed
experiences
Independ
##educ
screaming
Lincoln
##ophobic
obligation
introduced
Science
shots
ultimate
Miller
Mond
natives
Trust
approx
referendum
whine
escape
lux
grave
##ensible
Class
closely
celebrate
divorce
declare
##osphere
dispar
parliament
flee
fo
##ifts
indicate
##urse
creep
ironic
construct
refuses
unconstitutional
##iel
fundra
Comments
monopoly
JT
##believ
Bas
Hel
##anish
compe
Eastern
cul
shootings
advocates
##acco
##agement
Soviet
##umptions
estimated
##acept
Change
Ref
CPP
Cost
implemented
##inds
violated
represented
##dies
upgr
fiasc
teeth
Calgary
Attorney
##garet
harsh
##ani
southern
athletes
hopes
revers
sexually
awesome
Cut
Fred
targeted
spir
judicial
institutional
dozens
entity
responses
neighborhoods
Ign
Power
##ateful
amaz
defer
fiction
##IF
portfol
embarrassment
District
##irk
privacy
Unlike
inevitable
34
##wr
cigar
##sey
correctness
lease
Hol
rude
Anything
supremacist
territory
yield
diverse
Lake
foreigners
application
surplus
producing
sexist
##cr
Puerto
Despite
removing
Priv
bench
##prise
fascism
38
dealt
NOTHING
category
investigating
##ocation
##anges
removal
##ares
propose
Represent
embrace
Natives
##bb
abiding
spring
monthly
Margaret
giant
devast
surgery
rab
tourism
gays
Stand
failures
AB
##lists
inept
##lete
agric
Mount
voices
##xit
mountain
thugs
Nov
motivated
Rockies
Citizens
SP
##edge
viewpoint
Palin
neglect
relationships
strikes
Wai
bs
highlight
04
comparing
cheer
consensus
Wa
##ua
Build
warrant
##urning
sensible
loses
haw
destructive
Exec
DU
Sher
##enez
tactic
loyalty
stere
stab
contradict
participation
sque
wire
##known
extended
staying
##EST
sensitive
substantial
bonds
incentive
Need
UA
pron
Welcome
##inn
encouraged
bags
meg
reserve
filed
hypocritical
advocating
Cuba
exceed
boost
cook
##TD
theirs
fallen
fabric
clients
divided
sne
hierarchy
methods
lately
##bo
##inating
correction
proclaim
mixed
##ications
##function
du
##oter
phones
capita
producers
Cast
il
lame
outlets
districts
sarcasm
hitting
Kenned
dignity
Fore
purchased
bul
cancell
telev
targets
Enough
outcomes
owe
tor
spell
Arch
responded
incapable
Hom
Virgin
appointment
accidents
##esy
involving
McD
premise
lobb
sanctuary
Scot
summ
injust
Work
October
preserv
superv
fiasco
##ogyn
transition
automatically
governance
mistaken
incredible
sets
crude
Quite
##educated
Mod
intervention
confusing
Anti
wid
frame
incon
Ut
disregard
enab
contributing
Valley
surface
inex
##ERE
arrived
begins
settled
linked
hilarious
Cat
defensive
smarter
improvement
adopted
abandoned
HPD
##ports
incomes
ideological
Mag
input
requiring
dialogue
russ
##ingu
##uchar
completed
audit
contracept
##mates
blo
tab
tip
map
brilliant
bitter
85
lib
puppet
Siemian
##lymp
##endous
deserved
thoughtful
Society
GET
petition
tribal
maximum
spends
economically
Congratulations
##ership
orange
petty
quoted
races
##astroph
##ini
islam
Monday
bread
ring
Three
##ESS
reserves
##vation
##icable
stone
worthless
patriot
strip
preferred
negotiate
Kennedy
counting
International
##po
Boe
jack
##vy
assumptions
Director
##ivery
##onnell
Military
##enezuel
grace
Southern
mos
profess
##cle
##emen
chicken
ML
justification
Freeland
worldwide
##quiry
missiles
eligible
##aus
##urance
##omfort
prayers
Barack
##oved
videos
Main
expend
pedoph
oversight
44
Each
##12
##IV
ups
HRC
##umes
miser
subsidy
##inton
recre
deported
inacc
drives
heading
incarc
nomination
Artic
Cru
cyn
dropping
bothered
delivered
stereot
inability
Presidential
explains
joined
injuries
servants
shortage
encoun
##roney
39
Koch
imposed
illust
headlines
sou
pilot
invited
##ocument
acted
encouraging
pants
stable
##nty
overr
Hmmm
Political
hates
joy
##vo
ships
##atics
subsequ
Dad
villages
transparency
Might
discussions
genocide
Vegas
McConnell
##yt
applaud
##iffs
reveal
NYT
punch
homelessness
incidents
membership
Venezuel
##cript
##accept
decides
representing
FO
vig
lect
##mmm
departments
witch
escal
##nis
inappropriate
##obs
reads
founded
curren
Mulroney
Non
swim
hearts
##irect
spectr
kills
classic
seniors
catastroph
Rick
Indians
sentences
fingers
dil
universe
breed
grass
moose
originally
dispute
bizarre
widely
NHL
##iger
##estion
ages
schedule
inaug
trips
earning
praise
##lor
21st
graduate
concrete
Christy
looph
##inity
personality
observation
Bishop
42
birds
impr
frankly
##west
occas
asp
delivery
survival
resistance
volunteer
##olt
eliminated
TF
Beat
permission
Matth
aspects
##vant
##aux
##ordable
brave
divisive
coaches
List
Million
inequality
drove
##igence
planes
Problem
shoes
offenders
Ham
edge
sovereign
##LU
SB21
rigged
deemed
Makes
spectrum
liability
kinda
Period
recon
equity
Communist
Turkey
xen
Premier
FY
##gen
##mpt
skilled
trumps
tune
##30
facult
roughly
Fa
laughable
OUR
paych
honesty
semi
Though
brains
follows
Till
Almost
impacts
dictatorship
nominee
##ington
affirm
expectations
WA
thro
spouse
Stat
inflic
fortunate
##igation
donate
newspapers
Ell
##airy
##WS
subsidize
prospect
contributed
Wilson
##iol
##esis
##ansas
centre
sacrific
Springfield
Ban
craft
whoever
unknown
dioc
Eric
dyn
grants
enormous
Olymp
Sem
sacred
##rary
##umm
temperature
Based
preserve
Electoral
##acceptable
Omar
##ply
##makers
misogyn
moron
contractors
annually
authoritarian
Feb
Jo
##retien
##eding
bush
Europeans
tourist
tuition
##can
##utch
Doug
homeown
ruin
##orneys
inconven
##istically
alaska
##agues
offsh
airline
criteria
Using
Pak
Turn
moder
amongst
CS
fruit
assass
heroin
dysfunction
haz
taste
misd
rolling
##DA
discon
contrast
##riers
scientist
faithful
collection
PS
##eig
bigoted
##ede
plate
twitter
inaccur
Mother
thie
historic
sink
theories
tele
Wente
##anium
Democracy
Dun
Know
Pri
clim
campaigns
pursue
payroll
honour
prosecutor
Internet
##igate
uninformed
launder
Bab
Euchar
##ali
extension
##icer
opio
successfully
annoy
senators
##ACT
spreading
absor
neglig
sins
misunder
tail
interact
donors
quant
cup
REAL
perpetr
portfolio
handled
##bor
resolution
circle
felony
passenger
tragic
clothes
Bo
Sir
##oline
communication
library
mas
##osi
civilian
volunt
Brexit
surrounding
pile
indo
Rico
duties
uneducated
technical
errors
##udos
enh
blamed
tack
##win
##oria
hurts
colonial
heritage
Dece
senator
##idelines
luxury
discipline
tob
cloud
accuse
##ᴵᴵᴵᴵ
##ouses
Eth
Kevin
olig
excessive
97
##iesthood
##erald
indicates
Simple
canad
phony
ancient
arbit
backwards
threaten
manufactur
Fasc
passion
gar
managers
hearings
Queen
MORE
lawsuits
marketing
importantly
dim
##aucus
Ur
hij
recognition
soil
Curr
##urious
##anship
impeached
convenient
tap
Chretien
surve
server
misc
Congressional
brutal
pin
reviewed
LNG
##udge
coinc
evolution
inspect
lesser
understands
rooms
package
immoral
predicted
Albert
Ray
seconds
Drug
##PT
blowing
visa
Immigration
anonymous
##amber
shock
millenn
##OULD
entered
scrut
Executive
Invest
realistic
buddies
Anyway
TRUMP
piss
continually
located
alternatives
Israeli
diagn
authors
bikes
49
wont
##iates
##mart
threw
Parent
minimal
Qué
Brian
##iac
##empl
Dam
unacceptable
distribution
cathol
permits
Family
tobacco
bullet
consequence
##ae
stim
##olic
warned
agreements
generated
##fare
##oper
##IST
adequate
abus
fright
cared
costly
extremist
mud
parad
questioning
disagrees
Ige
##osis
civilization
##plete
atmosphere
leaning
rebuild
discred
fluoride
ilk
##eignty
##asive
invent
intentionally
transparent
checking
hypocrite
gull
profound
persu
penalties
enrich
adul
relatives
depos
association
Boeing
##inals
inner
liars
buried
Correct
##believable
Pel
boring
proving
peer
appearance
prosecuted
opponent
helm
providers
desperately
jurisdiction
43
joint
stole
##ogan
flip
congressional
skept
mit
bureaucrats
prosperity
##ocumented
Dog
raid
##gles
##igan
Head
feminist
procedures
renewable
Tes
hint
##alle
statue
selection
kiss
##tr
##icate
Presidency
connections
Sil
##umer
ignores
investor
independence
##kiki
##illa
decrease
##17
regist
dealers
shake
suits
smile
conflicts
disturbing
IRS
bible
##enuous
##ected
Hello
tons
Amazing
privileged
experiment
golden
hacked
GTA
gard
conscious
Mah
Use
##xon
washington
tolerate
##ousy
attending
lobbyists
toilet
47
##eem
##mare
recyc
Blue
##ek
##HO
##oots
formed
profitable
societies
Four
stadium
Aloha
endanger
hostile
Third
RCMP
Ap
Rad
forec
default
empathy
unwilling
Sweden
APD
JP
Sea
revel
reader
Sol
pour
subur
##ologically
##ahahahah
bureaucracy
##alin
##ITH
##arry
repeating
ancestors
sane
##osh
controlling
Ret
##organ
unus
sugar
fixing
##ias
trails
##ography
submit
Northern
discourse
Pakistan
Sn
WAS
##icides
proposals
##umen
##izer
attitudes
PER
buses
utm
Kath
holy
##lly
treating
##aser
Mrs
colleg
##ammed
Moore
plastic
dising
Grow
bombing
hated
inject
##emic
extend
colle
assumed
Soros
##bar
##abs
profile
towns
idiotic
fluorid
December
##pers
twenty
McK
shameful
currency
UAA
##ye
segreg
abusive
exposure
LO
wet
##eting
asset
treaty
##esville
Common
Central
Terror
TD
signing
Khan
##rof
dust
involves
Crimin
Bless
##instein
grief
violations
loaded
bogus
Coast
sociopath
Pass
mel
##anging
banning
prevented
athe
Sask
tie
stun
exagger
bars
thumb
polar
wingers
Special
##cl
priesthood
Spanish
selected
portray
hor
##inate
electr
evange
safely
46
Looking
##bre
owning
prejudice
jet
wine
pregnant
shore
button
spaces
##raham
appeared
unemployed
Move
confusion
civilized
rifle
##aters
##stant
maintaining
administrative
Hate
##boy
secondary
boyc
##otion
##etical
##ceeds
##uled
insanity
fathers
##inter
yourselves
wherever
condos
attractive
HU
Pan
##icultural
clerical
BO
2006
Enjoy
precious
hyperb
reckless
disingenuous
fence
##16
conqu
grateful
perception
prosecution
Atl
##vin
Speaking
Happy
##alled
invite
##gypt
##ii
Irish
incentives
ears
holes
##erally
handling
##ottesville
burned
##ousing
collected
magic
Sex
##uity
prescrib
entities
trem
SCOTUS
Louis
abol
leak
restaurants
possession
supreme
compon
##guided
##dle
##asant
##ifest
cru
robber
whist
Hou
wolves
##alia
apples
analogy
rescue
ast
Things
##iments
cleaning
##arters
donald
clowns
nail
shove
##aughters
engaging
bone
##iating
whereas
##ITY
swing
accord
Faith
tape
20th
polling
american
ICE
lessons
sovereignty
##leen
possess
reaching
conducted
bloated
sued
suff
Institute
Wouldn
Imp
impressed
editors
licens
condemned
AR
coalition
dissent
mutual
Foreign
##gate
##rels
extensive
mindset
2007
genius
##ched
##away
sore
##hr
mall
##ressing
explicit
Rand
resent
restricted
intentions
sponsored
Sus
Heck
parade
incorpor
Lo
##ifiable
Furthermore
nightmare
materials
accommodate
Waikiki
Egypt
teaches
gear
Inf
visited
Illeg
##IGHT
Mun
cure
indict
warn
hungry
raped
comprehension
Venezuela
##mine
atroc
Gas
gig
cruc
September
Ext
raw
diet
imply
enforced
improving
promoted
THEY
ineff
##gent
Stay
##uctive
reflects
veteran
costing
activist
punished
Hydro
affects
principal
Greens
phen
permitted
channel
deciding
software
Max
##aration
##RSP
##ocol
##ATION
backing
studied
accusation
Regarding
##atism
viewed
##nie
sympt
broadcast
artific
clever
gasoline
achieved
weigh
predictable
remotely
acceptance
WOR
mism
anytime
misguided
Av
mant
laity
RRSP
rall
Cra
##aware
moon
censorship
Catholicism
visitors
cere
vetting
Det
bite
dairy
Libya
ah
##omp
evening
Force
avo
obey
transform
CR
sided
outl
countless
Notley
unto
Virginia
Mem
overp
covers
counted
damaging
Mexicans
television
injustice
54
Pear
unity
offshore
##aped
camera
deplorable
render
leftists
##lands
freely
airlines
util
attorneys
billionaires
spokes
vit
walls
undocumented
Making
SN
ech
secre
subscrib
ordained
faculty
##EE
##ucky
##ONG
brainw
Gospel
Chap
Play
Fortunately
Hugh
##ailing
historically
##IVE
##imp
therap
nyt
leaks
visiting
focusing
Kent
William
Association
unst
Arctic
vile
##AIN
tested
harmful
buffoon
stars
attached
bigots
avoided
lumber
##uman
Hispan
Exxon
Kingdom
Alt
concert
sentiment
UP
##ihad
usage
surviv
rapidly
reprod
handful
Leave
tribes
##BLE
##uters
refres
estimate
Houston
priced
Planned
Merkel
Ariz
communications
pardon
Wed
##aders
##ioc
Order
expendit
UO
##UL
uncomfort
playoffs
Jon
uneth
Presidents
sweep
grandch
tears
##WN
fringe
unint
##ifting
charter
Indust
references
Palestinians
##aping
courses
genuine
Harry
admir
separation
elements
##uther
##venue
string
Bow
IQ
soph
conclude
reminded
bust
mol
##abe
clinton
spect
files
pricing
shad
shell
anx
##urgy
reasonably
assembly
bathroom
contest
Trevor
hurting
eliminating
blogs
Talib
Press
je
steel
Gupt
##uesday
fatal
##ettes
##24
inquiry
refers
chooses
tonight
Pelosi
Buff
adds
memories
64
vague
##rick
drill
Snow
fraction
myst
lud
nav
Libs
protections
prepare
5th
##iq
##ilarly
declining
##ambling
impair
ministers
fears
souls
violate
truths
expertise
casual
congest
slap
Warren
Dick
##EM
naturally
##MM
scare
reflection
pandering
##print
privat
Ya
wolf
shareholders
jumping
movies
##prene
##entials
reign
rehab
prescription
CRA
Jay
yards
normally
dismissed
Article
##usi
returning
distinction
occurs
Script
Charlottesville
phenomen
OMG
##ician
smear
economies
DNA
bent
##atz
wedding
##AP
##ulent
leaked
Orange
drivel
##theid
rum
hypoth
##rating
##cher
expose
amend
glor
apost
hypocrites
##bell
uncomfortable
residence
implies
clause
client
##assador
drawn
##91
##BS
##asury
crooked
visible
Road
OP
##77
deploy
##una
enroll
collecting
##keep
correl
behave
cameras
##HS
##iciary
decency
explos
Arizona
Dept
Stalin
Tuesday
asks
aboriginal
creative
grocery
Aw
Gun
##pot
lacks
procedure
intolerance
Tesla
##usc
dwell
invented
lefty
expanded
Pierre
Dream
Sau
btw
mothers
tent
listened
predator
WILL
interse
##ogyny
OS
Tech
##itic
##reprene
storage
52
loot
##inger
##unity
##eward
obl
exports
finances
Pray
##partheid
Parenthood
Bishops
Less
rip
zeal
##bow
enth
duck
##BO
inspir
lefties
Open
yrs
Kathleen
##usse
##ules
undermine
struck
purely
##father
prol
##idding
formal
Rest
Um
topics
embarrassed
Politicians
hr
ke
##initely
responsibilities
##REE
locations
epis
chronic
##oston
financing
exclusive
51
alternate
marry
Norway
masters
##upp
##IRE
##opes
indoctr
Opp
##ica
roots
beauty
magazine
Tillerson
62
Gott
WITH
Intell
Cruz
Kar
dub
##zy
exhib
speeches
painful
machines
snowflakes
##onically
##areness
notes
hammer
Self
needing
betray
##ologist
Research
##CT
sexuality
nytimes
unethical
Key
##oa
##fr
##aments
bashing
Gardner
darn
hike
challenging
Considering
registration
Emp
VER
Reform
exceptions
calm
Jer
Ly
cable
Harris
muslims
BIG
Pap
##uated
##ologists
##arma
stays
##oca
ultra
Want
ranks
doomed
##ulous
expressing
ludicr
hunters
inauguration
rallies
density
gate
tv
tall
wp
##itect
makers
Tory
comparable
criticized
administrators
controversial
##hhh
resolve
acres
Everybody
meantime
Ca
Hold
##ghazi
knife
overth
paras
101
absence
heter
unch
##inding
mortg
1980
centers
despicable
##do
publication
entertaining
sprink
##ded
##istent
admin
believers
demographic
enjoying
nukes
##worthy
morals
elitist
##olences
##ecd
questioned
FYI
grat
critics
##qualified
folk
unpre
Jefferson
misman
##fers
agrees
Run
##itate
Trade
mature
witnessed
workforce
Price
53
##idges
Lew
hating
##lu
overcome
##archs
##ARS
gullible
Est
fold
Carter
Corporate
IC
Lock
sought
dems
##hoods
Getting
trains
expanding
united
blown
avoiding
mechanism
vouch
horrific
thieves
Journal
Income
##erness
slope
trolling
drun
electing
Report
pleasure
PD
##acious
undermin
flash
dogma
twisted
##herent
corr
horror
##ondog
motivation
managing
blocking
Germans
routinely
imprison
Boston
ol
row
Thr
##ogether
##anka
supremacy
Down
vice
farms
Eucharist
ratio
degr
uphold
clock
distingu
respectful
PA
Ohio
replacing
Wake
120
##icy
catholic
Wood
##itty
accounting
disrespectful
##oters
northern
grandchildren
daughters
##ching
Ital
assured
selective
##rome
conversations
snowflake
anticip
voc
forests
recorded
interf
buyer
airpl
enterprise
colleges
##alks
Marxist
bes
##erated
diem
assure
maintained
mongering
Keal
gained
melt
Dave
##utives
shipping
##ups
##ificate
Adv
inaccurate
Low
SJ
unaware
processes
Bull
feature
assign
##represent
##inations
libs
popularity
##andmail
thereby
warri
##prop
weakness
overturn
##FO
adapt
addicted
Progressive
unusual
tant
devil
Simply
jour
##eman
##asonable
hub
bye
scum
sells
WHAT
Beg
picks
refusal
debacle
unfit
trap
blocked
collaps
devices
pse
semin
##ounced
##oma
##athetic
##hal
demonstrates
ludicrous
##ader
Italy
sexism
memo
subjects
clarify
##thers
##ags
VERY
negotiating
shirt
lawmakers
neck
entreprene
flights
Columbia
innovation
Confederate
##hill
firms
##lad
##usively
Huh
MY
##orial
awareness
##nesday
spill
misogyny
explaining
filth
indication
Aren
prisons
tag
contam
prohibition
ruined
wreck
##osa
drilling
##errym
height
juven
cancel
quot
competing
preventing
##obby
damaged
severely
nine
rents
whe
Totally
Kirk
influenced
Benghazi
##yard
##itan
##onders
serial
detr
crossed
defeated
##ocate
unfounded
pedestrians
bip
##rent
##WAY
##istence
unjust
incumb
fines
Disp
veget
disorder
lists
combination
Leader
Taliban
Cond
Food
van
gos
legitim
distraction
Wednesday
##ANT
utility
##ylum
inspired
pestic
cherry
##artisan
fundament
locally
convictions
banking
Community
dynam
roles
##hi
depr
cronies
Disc
Follow
populist
##globe
ER
Lind
oxy
Frankly
Mana
Drump
PRO
controversy
Revolution
Uber
##lock
##asts
scar
##ocratic
Gree
ax
Stock
oppression
cel
##iations
abroad
brush
arrive
Honest
grip
accum
Kush
Mey
Islamophobia
##globeandmail
GC
##aed
##izers
eastern
survived
lunatic
Mountain
##with
theglobeandmail
shoulder
Thats
murderer
earners
appointments
accurately
FN
violating
MPs
gathering
pregnancy
Barr
##celer
##aka
winners
specul
Exp
prisoners
improvements
sleeping
Walmart
washingtonpost
##avel
adn
empire
endorsed
72
overly
confuse
##OTH
qualifications
quietly
YES
##ala
exha
applying
redist
mode
penny
psychological
rampant
Jong
##ource
##active
donation
disability
Québec
regulate
executives
PL
##ateral
alert
arrange
##enedict
colleagues
counties
workplace
boondog
engineers
regressive
Medical
regional
coaching
Insurance
scrutiny
KN
Spain
ordination
timber
Hilary
inclusive
argued
modest
spoiled
##backs
frag
##itchen
narcissistic
enthusi
dance
##ationally
misinformation
speaker
Reading
couples
mock
sisters
##eries
Sharia
Gore
Kap
criticizing
update
##dled
trough
corrected
##unded
stereotyp
Cook
Rh
ideals
aimed
lobbying
67
NP
RA
##utical
##umbling
hurricane
shops
device
fascists
drawing
Luther
harb
segment
supplies
HO
Antifa
champion
##awl
scores
##ustainable
fortune
##ocaust
killers
NAS
##ym
infant
females
TAX
Majority
lone
damages
preference
columnist
mandated
Castro
Knight
##EA
coord
commod
uncertain
Small
Defense
Facts
Daily
legalization
Ak
helic
Private
professors
Rod
WR
condesc
dreams
attendance
mortgages
caucus
libert
predators
fate
##ns
##oking
plug
backl
careers
recipients
helicop
tong
##ari
Secondly
timing
58
shocking
findings
entr
HAVE
Ep
Sean
motive
columns
##load
frequent
pseud
##ifted
offs
##ERO
Develop
battery
digging
ACLU
##fire
comply
conform
Matt
eleph
Benedict
pair
stir
describing
dismant
Fort
##35
arts
founding
Manafort
chap
paralle
Terr
dental
Trib
discern
##ictionary
Mand
Name
Twe
mart
##anta
peak
indef
Notice
beneficial
languages
discriminate
Mau
contained
receives
walks
##idays
prud
novel
##ubb
publicity
Question
holiday
thoroughly
##bur
interven
##edly
##asting
acceler
volume
judging
2005
##rum
##▀▀
Club
##osexuals
Sk
underlying
impressive
basement
strategic
Cab
##EL
promising
demanded
Politics
hes
Chuck
Bring
Employ
##news
##essel
monies
passage
##limited
reactions
HB
ease
##irts
instances
##armed
denomin
hyperbole
##throp
asylum
offset
retain
##bishop
OUT
##elle
pointless
Patri
Auth
Stupid
organic
multicultural
Total
dramatically
rentals
prosecute
Protestant
##imil
knock
architect
hors
developer
Legal
enacted
unstable
57
Lower
kicking
dictate
wonders
insert
monster
salt
publishing
sharp
mantra
clos
newly
Contin
admire
curb
Manning
skew
##iased
congr
enforcing
conveniently
##olving
##istical
advisors
precedent
contraception
Gotta
Wy
##RI
##anoid
AGAIN
obstruct
Ducks
rage
sab
##THING
meal
swall
efficiency
ineffective
Word
vir
##leman
Charlie
Rub
##kind
crush
collab
describes
suspic
capture
Larry
##ikes
##apes
judged
computers
obligations
Cheers
approximately
holders
youtu
surrender
Hence
IRT
exit
humil
participants
welc
Cup
foul
canon
Stan
Deal
empower
hawai
dat
sticking
##ivism
outlaw
drown
##itionally
proposing
##ciliation
Env
MSW
laundering
Game
homin
##aved
hab
facebook
Kushner
Jul
##isers
assaulted
orientation
pity
insec
enable
##bert
classroom
WHY
##onton
declined
Laws
Ivanka
Ba
##idal
USS
detect
##AND
Support
structures
rated
##uz
##ruary
curricul
DID
sons
manifest
partis
statute
accordingly
reveals
epid
gramm
invaded
fest
##lements
convert
seemingly
blew
socially
Sacr
pap
##bble
##alid
##omy
##ibles
demean
suggestions
cheating
eager
Organ
186
MSN
Oak
Tuls
regions
initially
cous
beaten
Braz
thick
##think
tri
debates
egreg
presumably
hood
zones
abund
Cann
absent
Buy
Palestinian
Matthew
dysfunctional
Town
911
Vlad
##gun
polite
Univers
Budget
PP
##uffy
ballots
flags
ranked
Equ
##acket
homework
filling
characters
pedestrian
anecd
##etically
advised
distinct
Harbor
delib
TW
donated
equate
scratch
##izza
kneeling
congestion
Sever
cy
stom
##iblical
Uncle
##eek
dispos
ric
##vable
##aceutical
guidelines
behold
grows
##RES
targeting
tire
##da
##MD
Thurs
Soon
meddling
prompt
detailed
truthful
##phone
difficulty
comprehensive
sway
belt
continuous
##itorial
remained
98
sometime
collar
installed
Child
compliance
##iro
determination
Greg
complicit
captured
##sen
##uces
surge
hotels
hillary
isolated
witnesses
Libertarian
Doub
lap
communism
denigr
replied
plea
flooding
rocks
##andals
blocks
skyr
authent
physicians
purchases
Election
estimates
coh
divine
imagination
panel
Francisc
dominated
Natural
##NR
##jou
confisc
##atchew
Adam
secretary
ladies
spare
fare
handouts
REALLY
February
Light
disastr
medium
transm
fooled
consume
pleased
occupied
##isle
ally
adj
warfare
willingness
deflection
Jerry
Test
##matic
##icism
bridges
facilit
windows
performed
produces
obtained
chemicals
##atchewan
Squ
misrepresent
appropriation
Taking
##ikile
##omeday
simplistic
##oked
##ndrome
officially
visas
madness
Thursday
skyrock
Code
lousy
##icity
outraged
66
porn
wondered
reminder
comprehend
Section
hip
teens
tenants
Aut
inmates
resem
rightly
depression
Cross
verb
cancelled
interfere
##MENT
##ernick
Team
##dog
shed
##agle
suppression
admission
flex
Services
##oto
Anderson
ministry
##levance
ranking
manipulation
##box
Orthodox
##ribution
##OUS
motives
Barry
marching
rifles
Kn
##opp
highways
##umble
disappeared
PO
##utt
vicious
##pread
peers
monuments
debun
confirmation
hysteria
Gerald
Kansas
Odd
##eded
shoe
indicated
biological
amazed
##beit
occurring
inherited
##isible
shout
triv
allegedly
Burn
Kudos
mans
##iak
regret
56
##15
##opers
Romney
steady
subsequent
celib
daddy
dent
usa
killings
earthqu
batt
gest
weekly
Apple
Drumpf
foster
##lings
##itol
##oco
powered
ski
Bernier
basketball
fert
##rest
ont
admitting
Spicer
fantastic
DON
##adequ
relax
sucks
RD
mic
Ala
yellow
juvenile
deaf
offender
concluded
acknowledged
##40
##abeth
##osity
signal
fallacy
deportation
Illegal
Hyp
Children
paranoid
##aze
joining
laying
Bea
Easy
excited
traveling
apartments
Yemen
wives
Trying
Chair
bases
forgive
Kaep
Tulsi
EW
essence
sanction
##iqab
##idespread
1970
stepped
grossly
fleeing
Dead
Wikipedia
ram
beef
##etary
Brad
ZERO
artist
celebrating
compassionate
exemption
Jackson
cynical
Dispatch
cave
micr
ster
##teries
incons
didnt
##lick
defended
restrain
disgu
disclosure
emphasis
Saskatchewan
Bott
##rant
##reach
fores
performing
mentions
##LA
##ᴏᴍ
presume
lump
vital
advise
pursuit
CU
Royal
fox
rear
assimil
capability
medication
tremendous
##ims
handing
Forget
christian
ridd
abst
meds
credentials
disastrous
##reland
condemning
echo
socialists
closet
practicing
announcement
VP
##mate
inadequ
Asse
protects
diplomatic
recruit
##achel
accusing
regulatory
concepts
jumped
exploit
bonus
Atlantic
gerrym
tooth
haul
##iche
perman
protestors
bloody
cnn
##iences
##19
##advant
##ulus
restore
THEIR
accomplishments
homosexuality
desert
Deb
##ko
spelling
disagreement
Hosp
Lad
guts
plot
factory
tea
##eney
doubled
patron
falsely
volumes
Highway
bout
commented
ordin
gifts
sands
##ikers
satisfied
hazard
Dak
Treat
psychiat
Finance
System
edu
legislator
Eliz
Empire
Amen
Boots
torn
##han
bearing
partly
whistle
junior
##wan
##ettle
Religion
miserable
garden
Ireland
disadvant
functions
bottle
widespread
##dain
thug
Anybody
outstanding
investigative
Group
heroes
functioning
paycheck
##proportion
Jord
rose
##osy
##elling
militia
2003
codes
##DR
##KS
##chool
Repe
affair
astr
jets
nic
stink
##atively
obsession
tribe
Som
##80
electronic
measured
printed
manufacturers
70s
Ron
##andered
##ourse
Alab
humble
advent
obsessed
blatantly
MSNBC
Gord
les
##rade
nationalist
assaults
1990
Hann
gh
downs
provision
Harvey
petro
McDonald
##orsuch
bug
cease
borr
##iece
unlaw
Leitch
deductions
unbiased
electrical
pound
##cyc
visits
strictly
horses
Barb
Cur
Safe
unreasonable
abuses
adher
intend
lovely
unsustainable
conventional
Mus
theological
images
features
governmental
Prince
projected
nearby
deduction
Millions
shield
wasteful
diseases
deliberate
feral
##MT
##GAL
reelect
Criminal
Few
scope
monument
privately
messages
panic
advisor
GW
disproportion
Edm
apologies
80s
vessel
recommended
Ol
stability
exclusively
Quit
jeal
##bus
##atri
Anthem
altogether
tracks
refreshing
Meyer
77
##iah
capitalist
Believe
Viol
bums
pace
##WA
##isation
align
overtime
aftern
fourth
lobbyist
SJW
Hear
Year
ts
aspir
patriotism
##tion
##itters
Schools
observed
Several
Creek
Lay
Meth
##vard
buys
implying
complained
Affordable
tang
##itated
phase
##retion
appreciated
cogn
##keys
Somehow
elementary
theor
traditions
grandfather
Carol
NYC
ES
unlimited
##beat
charitable
shortly
foods
sucking
traitors
BB
marks
balls
girlf
Carl
limitations
tolerant
Victoria
Elizabeth
alter
DeV
Corrupt
Case
fancy
##itably
rebels
##fast
##25
greenhouse
WHO
1960
tempt
##rad
##adays
happily
boats
mentioning
impacted
sidewalks
##arity
sequ
albeit
readily
Governments
Morgan
divorced
outlet
upcoming
Death
sits
##uum
##step
damned
pilots
intolerant
##gia
##oulder
starters
implied
manufactured
forbid
panels
Motley
GH
PU
muse
Going
##anchise
cigarettes
Scripture
permanently
##uating
theolog
trades
Jen
Truly
indirect
patrol
Speaker
Commissioner
ingr
trave
whats
taxi
grandpar
assisted
cheese
totalitarian
participating
surrounded
america
boots
starter
2001
airports
Market
wanna
mega
##ikileaks
sod
##ummer
worries
lottery
instr
extraord
dumping
Pete
spewing
Mitch
RIP
tin
amusing
Answ
recreational
Feel
realities
slam
##ICE
sidewalk
bare
##roit
Shouldn
manipulated
therapy
epidemic
egregious
Jays
Norm
abusing
##ainted
nationwide
barrels
initiatives
IMHO
hal
##FA
Hardly
boundaries
pharmaceutical
cruise
doesnt
beloved
bedroom
woods
MUST
mild
riders
bleeding
homeowners
Alabama
41
Las
tends
actors
liberalism
forgiveness
silver
Michigan
shelters
hoax
Basically
Gorsuch
OT
Veter
cute
DOJ
nurses
habits
9th
Jane
##va
contractor
Parn
##arious
2004
CT
DR
Nancy
bold
uh
unqualified
inclined
millionaires
##atell
Crown
##AST
purchasing
STOP
constructive
resigned
rocket
##maker
##▄▄
##oping
retal
sighted
fluoridation
tongue
Nature
OHA
Poll
Zero
kitchen
pul
##ifer
infring
imported
Marine
suspects
eggs
prohibited
trickle
Lie
Sound
##ubstant
drone
bullies
firmly
vigil
hominem
LW
Own
stro
anyways
theme
overnight
landsc
labeled
##ceste
Hen
OL
##odes
saf
intellectually
##opping
legs
negotiated
predictions
patriotic
convenience
booze
compelling
Bottom
apt
##iqu
##bles
##sts
offend
assigned
cyclists
cowardly
LOT
##jo
chick
aged
disdain
contains
##inson
interviews
owed
Dall
##ds
Pride
inherit
Circ
zoning
Doctors
tenure
Local
##aver
##oons
##owitz
worlds
provisions
19th
suspected
introduce
unhappy
liquor
encounter
awhile
##FF
inh
##iden
demise
Coach
occupation
Singh
Parnell
##uu
##dam
Carbon
Djou
Kal
existent
emotions
Strange
infall
carries
Socialist
Angeles
boycott
obliv
##ena
##theless
Marc
objection
##ASE
periods
bicycle
affiliation
Intelligence
Mult
##fight
formula
##iterate
wilderness
Independent
Dub
False
tale
cheat
engineer
volunteers
Homer
gospel
reass
swear
neighbours
unrel
##riages
##uckle
pastor
furn
##mony
poorer
Billy
BM
Others
technically
Albertans
BU
Lives
Mom
##abet
##ika
ethnicity
citation
niqab
pork
##BL
congreg
griev
##icked
reluct
valley
Incre
landlord
WOW
vets
tex
remembered
murderers
rag
##char
doss
alike
meets
##asted
1950
Bal
Ice
##oding
executed
Airlines
Additionally
richer
BILLION
MAN
##edience
span
quoting
##teen
inflated
subsidizing
substantially
trailer
900
grav
supportive
opens
##incing
treaties
favors
utilities
inferior
trivial
Dod
limiting
uranium
afternoon
Les
##lide
##isterium
globalist
designated
automation
cyber
Years
##burg
##anim
Alceste
metro
rubber
episode
Jordan
sections
snark
Matter
suspicious
owes
pink
##orous
partially
##INO
grabbing
fulfill
##orables
##rett
##nders
meals
adverse
Wasn
dumped
gangs
diplomacy
channels
GRE
##BER
flowing
##CAA
Program
bipartisan
Assembly
Nonsense
Tower
dup
rook
chat
crooks
##erty
genetic
examine
prosecutors
summary
Housing
Pun
Sign
Ward
relying
##illions
##rav
sunny
##eng
##ruce
corn
##ANS
communicate
curriculum
desk
agreeing
certainty
broader
concentration
enlighten
agriculture
Hot
akin
##olks
##ancies
Convention
morons
frustration
overwhelmingly
Stevens
Crimea
citing
gal
Complete
routine
graduates
journey
closest
##cow
##lan
##idance
fracking
##ERICA
thankful
shallow
craz
advers
103
advertise
TFSA
##otal
yearly
ditch
icon
##empor
Lynn
Cold
shred
logging
filing
Suprem
Jean
Davis
graduated
dramatic
Dar
rats
##gie
relate
inherent
Teachers
##wing
##oba
Taxes
blanket
Greek
JO
##itations
lip
Forest
equation
descend
superiority
manipulate
diesel
requested
appease
Melania
explicitly
73
##illance
dement
##ocy
##ucc
##ittees
practically
societal
catastrophic
dossier
Hind
Project
Beth
fur
sed
sends
tide
dual
sail
guards
populace
physician
behaviors
bulk
lake
Harvard
##OOD
##coph
##person
##irl
amate
olds
sewer
compromised
champions
tanks
##zing
healing
solving
hung
pigs
tyranny
occasionally
Carr
inhab
##opard
##ami
equals
lowering
##itzer
riot
##aeda
DeVos
jer
##olo
##urray
##respond
RO
##east
lawful
happiness
Kenney
59
KP
##cedented
condemnation
translation
68
Trad
Reality
legalized
Exc
campaigning
Dev
suspended
satisfy
Divid
Gar
Math
gee
##iams
seeks
##ogen
Somebody
##OUN
Manit
flagged
implications
elephant
Fat
##afe
##leum
external
businessman
arena
harvest
parishes
Event
Hun
Kill
vocal
##EB
##pless
Arm
McM
60s
Moana
McGu
emotionally
Cars
NCAA
SF
Top
Smart
segregation
74
hug
##ingo
##opular
dressed
servant
imports
academics
tortured
LP
##astically
appalling
blessed
egg
Clean
spots
competitors
begging
bargain
untrue
occasions
EC
Nah
##ola
drops
median
##ference
unwanted
tossed
condescending
Toy
##aylor
##iler
considers
Compar
Satan
Professor
venture
abusers
expenditures
##ni
##pool
thirty
indul
refute
parr
350
Century
Govt
AMERICA
stamps
DT
Hal
Hand
Horgan
Send
heating
payout
Glenn
disagreed
uncle
coffers
artificial
Merc
rounds
##22
##aneously
##iker
Patrick
deplorables
boondoggle
pets
vil
chip
prominent
observations
Philipp
nurse
wounded
neur
Heaven
desired
Jimmy
temperatures
recommendations
prevail
Husse
##bling
Troop
metaph
Policy
accuracy
revealing
aggression
Refuge
reversed
rabid
opioid
GMO
##Po
unaff
dealer
salvation
fraudulent
Collins
rubbish
Duke
OH
##osm
bash
discretion
passive
Mahalo
Jason
wipe
##wa
mountains
Kaepernick
BP
WAY
pose
##ima
comedy
commute
humane
Pebble
Been
hoped
inconvenient
backlash
Lady
apartheid
##pm
##acles
Unions
admits
subsistence
shutting
stepping
enabling
Kids
scandals
terribly
flaws
Wish
##otics
chamber
unex
governed
sheer
promotion
vastly
Italian
Save
vind
##BM
##aky
sycoph
productivity
clinics
Boulder
Gal
Ram
Cho
finest
Rex
NEED
distracted
Tea
Tai
dere
Weinstein
associate
launched
##13
loopholes
grandparents
Luke
guidance
minions
Guy
circus
evils
dispens
literature
Officer
Saunders
courtesy
merits
Pearl
um
sober
burd
monitoring
od
confl
rises
component
unprecedented
KNOW
welcomed
FE
baker
faux
##rence
##osec
mankind
commentators
provider
testify
premier
Techn
Edmonton
Pand
caps
plag
addresses
accompan
jihad
void
##atar
Blacks
advantages
libertarian
Francisco
Dakota
Dutch
naked
sessions
drinks
breach
180
##aucas
overdue
Environment
FREE
Line
##MC
ange
##irable
entrench
verify
extraction
Rogers
Hussein
Berk
Wind
mask
##ayed
dose
##essional
nicely
laughed
63
Pent
satell
##rative
expectation
messed
practiced
balances
praying
landlords
Benn
##tin
##uming
china
impart
refund
dealings
Religious
sincerely
Wars
someday
##struction
##igated
##imental
propon
condolences
##arming
Moreover
celebrity
honorable
bucket
certificate
coincidence
heal
##odest
##althy
Arabs
Captain
unborn
narcissist
mystery
fundamentally
##IME
majors
subjective
rationale
diminish
persecution
HR
Lars
garn
leverage
endea
systemic
Princ
Comment
radar
rolls
experiencing
mobile
orthodox
##acre
crop
waited
Representatives
devastating
Dude
TS
rants
##ele
##erb
wells
slim
locker
inflicted
Ho
cess
##pson
##gets
labels
sinful
dominant
##withstanding
Fish
cater
##front
##lee
##amo
unarmed
pastoral
sworn
squat
unpopular
Delta
robbery
Bear
YE
reforms
1980s
ASD
Duffy
##iners
policing
recognizing
licenses
Socialism
digital
begun
Homeless
adjusted
fetus
Hypocr
NSA
Rid
bidding
talented
necessity
batteries
Budd
Nick
##Care
reimb
misery
pathological
agendas
exercising
Campbell
Book
Pathetic
##tes
Williams
Incl
schemes
Anglo
bargaining
Pipe
destination
respectfully
cooperation
Saint
sic
vend
##isen
##ista
benefited
await
reneg
##ECT
Manitoba
hah
##oubted
colors
processing
Marijuana
undo
intentional
garage
eternal
jew
theater
butter
requests
reduces
Blame
Willam
sinking
deductible
##FORE
cem
##iti
##ocracies
Short
farce
deniers
households
vary
notor
artists
slide
##etheless
habitat
surveillance
shadow
Honestly
Mid
bin
##bc
##ifact
corp
##uctions
sums
NEWS
landslide
##arthy
km
resolved
exposing
considerable
constitutes
##CCB
remarkable
washed
appeals
debunked
fighter
mush
##ldom
shit
##elled
suppress
scrap
commenter
farming
Orwell
declaring
Dougl
Bowl
AA
DOT
bast
thief
unbelievable
studying
rotten
endorsement
diocese
impaired
phenomenon
IP
Says
murdering
##iscop
urge
homosexuals
beside
ETF
FR
Han
MU
##fusc
seed
resume
##ipes
correspond
fighters
researchers
placing
##held
WW2
girlfriend
Son
mindless
informative
operated
Flag
Taxpay
91
bot
##rust
##cha
triple
unreal
intense
rapists
disconnect
##WAYS
Maui
Cher
Deep
JF
Cheney
imposing
instant
communion
circles
cardinals
Cory
lyn
##pg
##atable
##imer
trends
careless
throws
networks
Africans
##rehensible
##guard
scheduled
Broad
Dumb
Rule
RTD
aver
marked
imaginary
retirees
Begich
grammar
Cred
Calling
Sud
Seward
##rr
##hem
humility
passport
Brother
Bravo
CANAD
clinic
Archbishop
Holl
feat
proph
turnout
answering
convincing
##heads
skinned
BEFORE
Wah
consol
carn
populated
borrowing
Cou
Cop
##OUT
primaries
Saudis
displayed
mismanagement
Tony
masc
pund
partial
guest
NON
barriers
essay
Communion
##gled
underground
mouths
elevated
Moscow
withhold
##emean
pled
##nex
childhood
campuses
Michelle
nuke
riots
##oubtedly
Age
EO
TPP
pony
##riends
##prod
delight
kingdom
Ku
invalid
evolved
Allen
conservation
Respect
rejection
scripture
Lewis
RCC
luc
##iffer
prize
prey
##ceptions
subtle
biases
Coal
##abbard
Answer
Full
lawn
revenge
STILL
routes
boxes
WMD
Bron
subjected
Dallas
dope
sized
##lex
##stal
##etics
seasons
##atson
bullets
yelling
branches
royalty
GHG
dictionary
aging
minimize
renting
privileges
awarded
PEOP
annoying
bones
nerve
##itar
stagn
guise
selfies
assertions
holidays
Ball
HS
relation
##insula
##onica
atrocities
sabot
Boo
Lor
##Tube
sect
immune
submitted
parallel
HOW
Live
idol
problematic
freeze
feminists
screening
russia
Taiwan
Gulf
##power
metal
Olympics
licensed
Eventually
anch
##holder
reviews
Nobel
hacks
Detroit
dangers
##iscons
1970s
preparing
confronted
Chump
backup
economists
Commer
expects
encourages
blindly
ALWAYS
reconciliation
##IE
leaking
buzz
inflam
gladly
automob
ACT
sophistic
##amper
sectors
##iph
flour
authorized
Dennis
rapist
Disg
horiz
inadequate
Folks
##overs
##000
presents
Advent
citizenry
##hhhh
interviewed
extremism
puzz
Liberty
canadian
Currently
anxiety
nons
relevance
shipped
relent
movements
2002
releasing
Willamette
Fall
Luck
migration
pizza
##MH
seldom
undert
Ord
prediction
140
attracted
##isconsin
Five
Marsh
Pick
wound
##RO
##idate
##ppo
knees
instinct
slipp
renters
##aphr
rewarded
Pandora
bapt
Inlet
simult
promotes
burst
turb
Balt
Haven
Kat
fond
##ieved
invade
centered
worthwhile
Couldn
intersection
##etch
timely
liturgy
perpetrated
vib
##23
troubling
administrations
Provincial
Ethics
inclusion
commonly
arrests
negatively
delete
ambassador
attributed
SUV
Half
hats
pee
celeb
frightening
filthy
##pa
stiff
sticks
shill
upside
slip
slander
exciting
McCarthy
boomers
Labor
rewr
##imon
noble
##gments
cliff
carpet
fights
excluded
brainwashed
distinguish
8th
bol
dw
##KING
chant
worn
pledge
obfusc
interpreted
correlation
Wave
ly
rug
##leep
mirr
motorcyc
Cand
tier
##ilst
Stone
DUI
Aud
Find
cock
##oped
repealed
##lihood
Sloter
Economic
fundraising
incarceration
ole
78
ILL
Oper
Ta
##90
##abil
USCCB
releases
arbitrary
discredit
Biden
##hard
##eted
chasing
monetary
investigators
welcoming
clarification
upgrade
agricultural
Hait
forums
prone
noting
dragging
Province
PEOPLE
UC
ft
lethal
associates
merch
recruiting
unrelated
rever
##thony
demograph
##flix
touched
tendency
fleet
Usually
teenagers
jurisdictions
Jac
sample
worrying
frustrated
deceit
Building
##itism
contempl
##ogical
publications
Shoot
freak
websites
misogynist
distant
##ophy
uncons
despise
disgusted
dubious
perce
substitute
harmed
custody
rolled
##anoia
##66
Doing
exceptional
revision
approaching
hopeless
searching
censored
applications
unlawful
ben
##irming
conting
vaccine
concealed
survivors
Luc
surch
sher
Week
insure
immature
##azis
##mmmm
Poland
Between
resignation
obscene
unintended
til
abilities
##pels
##grounds
snake
1960s
tower
preaching
Guns
NBC
Wolf
conservatism
updated
imperial
FOX
Hispanic
pesticides
Poly
##97
maker
debts
mathem
prevents
71
ms
probation
##weight
felon
conversion
demonstrating
verbal
appreciation
chase
generating
DOES
Aleppo
clarity
slightest
venue
enlightened
Ju
nailed
##hinged
carrier
landing
Corporations
ang
##aints
paste
creatures
unsafe
cowards
crucial
Cow
Scient
##url
delic
nowadays
committees
Koreans
civic
dragged
skeptical
Bapt
Habs
##iag
overhead
realizing
Palestine
Tit
flush
Brooks
threatens
accessible
allegiance
harv
tolerated
disappointing
enhance
consciousness
##odesta
Monica
spy
##peror
understandable
travelers
vacations
vetted
Ukrainian
oceans
CL
Ten
Voters
Wisconsin
##licals
strings
spinning
pursuing
Klan
Dion
Mt
##enger
shouting
taxable
##rup
similarly
singing
speakers
assumes
PhD
paperwork
DOE
satire
inherently
voluntarily
Oce
retreat
cleared
affecting
hysterical
Racism
Cre
sta
outdated
amendments
Douglas
chin
desires
exclusion
proportional
Creat
fame
sust
##gies
##GH
##ante
backward
identifying
DM
draining
prevention
glut
execution
fiscally
Legislators
##ulsive
lecture
##NC
thrive
richest
Crow
presenting
symptoms
suspicion
BY
Yea
nerv
##mal
##pat
ate
chart
argu
Amb
Parents
jokes
deserving
wiret
Kealoha
Ross
crowds
calculated
RINO
wiped
##iture
liking
wholly
##quis
flesh
marriages
tariffs
wallet
ensuring
validity
WaPo
swimming
USSR
Mic
hog
##opol
protocol
moments
categories
SHOULD
DJ
Ult
##fd
##asi
demag
##aza
Conoco
##bye
imagined
graduation
Speech
pronounce
Taylor
##jan
appointees
gods
cells
symbols
Catal
JUST
Roll
RES
thres
##igm
##elo
fireworks
respecting
evaluate
pod
suffic
footprint
deck
endure
Parks
tweeting
delayed
vitri
horn
Altern
##ORT
columnists
compliment
jeopard
overthrow
incumbent
Gabbard
coc
##cies
thier
likelihood
##ucking
selfie
definitive
Richmond
Kenai
feminism
##iocre
KPMG
DB
Jobs
dates
vap
##actions
##roach
Allah
traded
achievement
assassination
converted
##osby
thereof
kidn
nationalism
League
literal
exemptions
tolls
FACT
Kong
Ronald
trudeau
clubs
##ensical
herd
THEM
cattle
Slope
federally
FAKE
##rates
##LC
washing
disasters
##athan
glory
exclude
fifty
Vol
gambling
pounds
sam
##iability
##opia
leaf
climb
format
revelation
Tar
##aying
##acent
paraphr
continent
millionaire
patience
##brid
counterp
perpetual
throats
overpaid
beds
##ixt
##etta
fled
Mall
Ru
##atical
acid
##remlin
Prosec
predomin
drafted
nominated
perpetrators
BOTH
##nesty
saves
statewide
identical
##ITE
censor
legitimacy
Brazil
Living
plural
immense
reasoned
oppressed
misses
Histor
cognitive
bang
lung
##33
##itating
unite
confed
communists
mails
Evange
Apost
Fem
Sears
Tour
gou
##TC
charities
caution
convict
treasury
fragile
Cabinet
Conway
ideolog
Thankfully
risky
stomach
6th
Penn
stew
camping
fairy
dupl
threshold
Rose
##18
paths
photograph
settlements
Golden
Sheriff
rit
orch
##ooo
graph
##brose
401
innocence
Register
lifel
Disgusting
Duck
HC
Vill
goose
shoulders
##ouncing
birthday
gaining
##loads
strategies
Susan
rivers
slogan
envy
deranged
Netflix
arguably
BA
ploy
unanim
coherent
sheet
financed
##heart
implementation
Oops
POS
##MS
##acons
##inder
##apper
Geez
##ONEY
evaluation
Toyota
PTS
Qaeda
Management
Leftist
genuinely
Der
##pent
abide
##osion
##osevel
generals
denounce
pickup
shameless
Reserve
constitute
wheels
datab
Henry
Fail
Jared
Van
##inos
##onz
athletic
micro
HI
HIS
Past
shower
parole
proclaimed
JPII
prescribed
unle
unhinged
grain
underest
mediocre
Front
nationally
WRONG
Eagle
nit
##45
##DER
insider
trauma
Beach
Islamist
apologist
speeding
dominate
adultery
riddance
bans
##DY
hears
bypass
apple
Anthony
insu
valued
lowered
uncover
knowingly
Kinda
##iosity
Kau
Sr
##aton
##isted
defines
operates
##vertiser
starving
76
Laur
unins
cripp
overst
soccer
educating
crowded
documentation
commissioner
Academ
chickens
celebration
conver
##solete
legalize
erad
qualities
accommodation
airplane
Development
entrenched
Bund
Hong
LTD
couch
hipp
pills
##redict
glob
norms
Resp
##offs
Australian
disclose
Division
nursing
pm
##olan
chest
##abus
pean
medicare
Control
pseudo
Hospital
Nuclear
##ɪɴ
crown
YouTube
corrupted
bowl
voluntary
commodity
prudent
##iques
##agg
##onda
basics
discovery
insured
formerly
technologies
160
demographics
Dump
##stration
Ambrose
subscription
isolation
pedophile
##sett
enabled
backb
respective
##ahaha
AFTER
Carolina
##emporary
Master
rewards
##imir
deception
1500
shortfall
globalization
entrepreneurs
hawaii
OWN
borough
dread
nause
##fit
##omer
offence
contacts
substantive
exploitation
nonsensical
Santa
developments
homicide
PTSD
Inv
knowledgeable
commerce
terminal
Anglic
rehabilit
90s
##obia
drones
campaigned
vacant
##acron
fascinating
ambig
Mine
Podesta
weas
##agging
statistic
rebutt
LGBTQ
ILLE
Foot
##48
unequ
##ificance
Rebel
breathing
Affairs
misdemean
SK
aisle
##IES
##ican
##arded
condone
firefight
referenced
presentation
separated
fundamentalist
americans
bribe
mirrors
Outs
##onia
##ito
feeds
blows
exploration
Neo
Roosevel
sarcastic
SW
##27
observe
Financ
pissed
warriors
cesspool
##uend
##chair
##amble
##ila
##ceptive
curve
determining
manipul
JFK
PAC
##imated
##charge
flames
##ikh
Resist
Stein
##zzzz
appealing
inevitably
glasses
prospects
indictment
FTA
pic
##zer
tracking
crops
cheque
##rogen
catching
sympathetic
loophole
Fix
nazi
##UC
Inn
attach
obam
flies
baseless
vacuum
REP
guarantees
Single
Ent
lining
goof
projections
Knights
Buddh
CF
MONEY
Sav
##ria
whale
trav
##ivals
Asians
obsolete
organize
Wright
neighbourhood
succeeded
Craig
partisanship
surcharge
Mind
Wikileaks
pac
##ummy
reps
biology
Working
intimidation
dioces
packing
sadd
reflected
apologized
Safety
blessing
1950s
extraordinary
Lit
ᴀɴ
##vada
steep
##order
invitation
param
Expect
renov
Representative
RIGHT
Watson
mph
disen
antifa
fearful
##oxide
entitlements
robbed
Judges
Field
Ren
##itary
##igent
offenses
esteem
treats
proposition
##ausible
Cass
Farm
OD
mr
pont
alright
scape
wrongs
reserved
battles
BMW
GST
Graham
##espass
amm
advocacy
sanity
erect
jpg
forem
##ilton
drum
underc
repairs
joking
Learn
hurricanes
compelled
mosque
ABC
Die
Macron
Nug
puff
supplement
Saddam
intrins
implementing
magnitude
88
TMT
trillions
bosses
86
Kurd
waving
##eze
stem
Troll
resur
##onduct
Anim
superf
1984
panhand
delivering
discourage
Ignor
HUGE
Establish
FDR
preval
blather
collectively
characteristics
baggage
coastal
Decl
oriented
Roosevelt
aston
backyard
formation
rigid
triggered
Saying
Aid
##no
reap
##amin
##eaks
Fine
roster
##inis
suing
Former
willingly
Schumer
helicopter
OC
awards
##oqu
franchise
glac
##ACK
attraction
tweeted
Dal
ferry
##nant
##uzz
##MB
stunt
crappy
##otto
cleaned
undoubtedly
troopers
applicable
applicants
Congrats
7th
spouting
governors
prel
Repubs
Engine
consuming
splitting
insightful
authentic
simultaneously
Kremlin
smooth
occasional
drunken
NASA
petroleum
foremost
Caucas
ak
democracies
exped
researched
painted
Ironically
gentleman
Square
EWEB
landscape
Fil
##pit
##wash
##inous
conceived
##ocated
##bey
retract
extinction
##bridge
Cape
Moh
hatch
##wich
##VI
abh
optimistic
93
Fear
pes
consec
##isms
Doctor
sentenced
accomplishment
recovered
fisheries
Ver
isnt
unil
perp
strongest
allegation
screwing
Humans
acknowledging
##mother
Donnie
##azz
Remington
liturg
endangered
Mason
VOT
stif
shirts
##intend
debating
operators
competence
wore
##lv
alot
instruction
110
forgetting
physics
consumed
spirited
suffers
Keystone
Sens
##ithm
sham
suitable
1990s
insisted
clerics
Oval
mocking
murderous
##HAHAHAHA
Giving
oregon
##owder
viewing
delays
discriminatory
celebrated
millennials
Sunny
Tories
crony
doubts
broker
Spot
atheist
##iscopal
Kr
gre
##ipt
rightfully
objectives
embraced
Happ
##dn
##inery
epic
seal
glaring
denies
xenophobic
infam
happier
Perfect
Among
##END
Assuming
Healthcare
reinfor
Vladimir
69
Cam
Jill
nazis
unhe
##ache
regarded
appropriately
inefficient
hostage
renewables
conferences
Gh
Hay
biblical
thou
##uter
alliance
##ussions
Putting
Adm
commissioners
deposit
Ridiculous
##ienced
##isp
chairs
crook
overh
interior
significance
nonp
idiocy
sounding
Flu
cartoon
Bon
fitting
wider
##UD
stal
deer
willfully
Reid
reductions
McL
autonom
Impeach
magically
forecast
texting
##car
stranger
##oids
smokers
stimulus
Diversity
GOOD
##FT
disgust
cycles
seekers
rhetorical
wisely
deceased
cheerle
FB
anarch
annex
##iana
relating
paranoia
wrongdo
Modern
Industry
chapter
impartial
scapego
Pa
ss
##UU
##ws
founders
sentencing
curt
ridiculously
apologists
distributed
GCI
slippery
96
Nan
whilst
dept
recount
insign
influx
objects
pleasant
crashes
Metro
duped
Bruce
MD
MILLION
Oft
bend
##nox
stones
elab
Electric
Idi
##ozen
mitigate
##ubstantiated
Rice
ammo
misinformed
liquid
leases
Alcohol
diver
invasive
subway
SB91
fifth
secrets
##70
##olini
purport
Campaign
Holocaust
Testament
Lim
Rush
lem
notwithstanding
##iances
##athed
##urred
skip
troubles
displaced
earthquake
vandal
##dict
##ema
##ivol
actor
Stew
Bloom
STEM
Immigr
Studies
Scotland
##criptions
inflamm
Meg
cough
todd
whales
Ther
Brock
ethic
obser
demonstration
instrument
LB
SCC
##oris
spit
mines
capabilities
documentary
parenting
Listen
negligence
multiculturalism
DIS
Hamm
Kas
##iaries
##utable
probable
negotiation
Disney
HAS
Kool
Tab
shine
chains
glo
replies
unfold
traveled
instructions
Cool
Eisen
Haha
hater
poly
daycare
ops
judiciary
statistical
Elections
quarterback
disruption
unexpect
Kah
TE
fer
##HH
##urable
##irs
leash
fined
Plenty
tenant
transferred
Company
Differ
##abetes
##itness
##che
frozen
myri
refrain
remed
detached
nationalists
burgl
writings
borrowed
cows
evid
##encer
Forces
favored
adviser
amateur
Financial
Won
##rump
##anas
trim
##andra
regimes
definitions
Billions
crystal
Transit
Greece
Cannabis
metaphor
##rations
##de
theat
sayin
flav
dishonesty
perpetrator
keys
Qur
Sug
dun
uk
##elve
destabil
directors
threads
Laden
lesb
Rachel
lod
##lah
##atoes
##opher
##ours
confession
Johnny
Neil
jailed
patterns
paradise
Nig
aer
##aun
trials
coin
indiffer
ceremony
Dividend
ripped
##sea
shaking
aloha
loudly
teenager
proceedings
constructed
dynamic
Gay
##lation
##ickets
funeral
##USE
sickening
initiated
shrinking
cooperate
melting
dot
angle
##ety
Trumpster
betting
lasting
hopeful
populism
##ommun
Georgia
acquire
rookie
inhabit
RT
Ros
hype
tips
wink
##14
whis
leap
##ablishing
##anyl
LIO
Job
Los
moot
waves
##friend
##wart
##ecks
flock
patch
elimination
flew
recommendation
resentment
secrecy
Emer
exter
##aby
##ibou
playbook
respects
gathered
eur
woe
anthrop
invisible
risen
Command
barbar
journalistic
##shine
CEOs
vulgar
satellite
Murray
kool
wack
##Donald
tox
contention
##inty
pertain
bothers
innuend
INC
creepy
misconduct
##ieving
Inform
##aio
affirmative
throat
tackle
Awesome
overturned
##arios
prag
abys
Story
defect
obnox
legislatures
printing
treasonous
Pitt
cooking
citations
tainted
oranges
economist
Amy
punitive
Robin
dressing
84
Tem
View
binding
inane
comed
##acular
##agr
##assy
commits
marine
violates
Leaf
municipalities
Made
Roe
tat
##entanyl
##keley
mineral
ridership
scenes
Islands
Help
parasites
myriad
##99
##istol
disse
posturing
docs
squad
Chaput
foresee
Philippines
Action
FL
kil
posed
##omever
lev
php
popes
landed
availability
medications
bathrooms
confidential
Gall
Wiki
wishing
beats
aligned
farmer
mini
programming
purse
trusts
AGW
ANYTHING
Montana
streams
lucrative
unhealthy
Near
Source
Tob
Zeal
inch
asc
arsen
Schatz
breakfast
examination
unsubstantiated
Communism
Legislative
##uccess
DL
tables
vested
##iper
transfers
peacefully
wildly
Citizen
EXACT
warnings
jealous
lifelong
dense
acre
scumb
carriers
humanitarian
founder
meter
nights
scholarship
transmission
Six
##face
##rell
believer
cream
advocated
participated
equivalency
Protect
errone
Kinder
vaccines
cousin
Pentagon
Site
interrupt
equipped
environmentalists
consultants
sophisticated
Bure
newcom
##esey
devoted
occupy
aspx
bir
##owell
perks
herring
homeland
devoid
Lawy
midst
delegates
ordinance
globally
Sort
saint
residency
recipe
liberties
insurers
breakdown
bombed
nutr
fantas
fishermen
queen
ontario
III
Pure
Poss
bury
cosm
##cor
donor
##ifics
engines
objectively
Reminds
Phys
Resident
packed
derived
settlers
bandw
disgraceful
Nova
Guptas
Micr
PAY
john
shorter
frivol
realt
##othy
mighty
divisions
Accord
opioids
insecure
eco
##hower
trespass
feas
remorse
minus
humour
honored
contributes
explore
baloney
ghost
Duh
Na
Voting
mamm
##ilation
chunk
enlist
Canon
sword
proudly
interfering
certified
Companies
Columbus
Utah
meltdown
Often
##iably
##leg
whack
deluded
Agency
##ARY
sponsors
structural
evangelical
##ca
##chism
##itto
handic
##aval
Phill
domain
cooling
##inois
viewpoints
stagger
needy
##inters
Churchill
declaration
Abraham
Iranian
bureaucratic
SOME
Cuban
Property
travesty
convey
manual
farther
potato
mortal
constituency
teenage
Sunni
oligarchs
Holland
OAS
##imm
##oyle
##mma
iron
directions
Bye
Mao
concentrate
SNAP
bay
rides
rogue
thy
Thought
stinks
Chong
insin
possibilities
switched
##guardian
sty
deeds
pressing
stunning
theologians
Lot
TIME
theguardian
Conference
Lawrence
verdict
diversion
translate
Through
nervous
cad
pad
##cup
##36
toast
gravy
indign
Shut
slack
radiation
tuned
tunnel
stroke
barr
nick
##QU
##orting
appalled
repr
##egu
rooted
strang
recognizes
vouchers
rebuttal
ILLEGAL
OVER
PLE
Ral
##TO
suited
##version
warmer
strangers
institute
deterior
Protection
sporting
Sexual
##osystem
750
thes
proceeds
5000
fueled
Mississ
coupled
outdoor
Eisenhower
hires
articulate
socks
Unbelievable
viewers
oneself
reactionary
Fathers
tricks
spout
##iley
advances
troubled
miracle
EVERYONE
swallow
##lahoma
##found
##astri
quota
realm
invading
wording
Brits
approaches
altar
tearing
Bro
Night
##orative
##eto
shy
Syrians
Opin
##oil
shady
illiterate
massacre
hyd
undes
confirms
Hamilton
perceive
PET
lou
##oen
##itivity
##etery
##elt
barrier
withdrawal
hubris
indirectly
obnoxious
Psych
hollow
##bag
stoned
##uson
levy
cheering
Denali
insulted
psychopath
manufacture
##MAO
cruelty
Banks
exempl
guests
massively
internationally
contributors
hunter
mandates
sensational
disappointment
##imonious
Rosen
##oi
##ois
##itimate
lips
##ela
adequately
87
Race
##icule
liable
impress
Commons
Courts
1998
Prior
corrid
Hint
gym
ware
##IZ
##ili
factories
kindness
Arp
DNR
labeling
preservation
absorbed
GREAT
Aqu
##igans
infin
Scouts
##liers
Heritage
inexper
Gupta
Veterans
Berkowitz
Ocean
honey
##RY
##26
inches
stall
##oded
##ocus
defining
magisterium
Universities
Vis
nanny
homophobic
SAD
outsider
skewed
lapt
##ulance
##onds
repet
schooling
transpl
100k
winds
##ASS
trafficking
##AAAA
smells
hypothetical
heterosexual
bored
##esity
##ibi
##ifax
illusion
namely
defendant
integration
litigation
fertil
Dest
Nic
##isor
transcript
candy
comparisons
smoked
Airport
frustrating
Buck
Doll
Vice
crus
Reilly
destroys
painting
margins
Daniel
##elfare
indoctrination
uncertainty
##iencies
##eu
##FC
##jug
shiny
plight
myster
wrest
cleans
oldest
considerably
accepts
democratically
descript
assistant
robust
towers
Illinois
ESP
pending
Thous
##pling
corps
slog
immunity
Assange
pitching
##oj
##eracy
divert
scat
##ARD
robots
reproductive
##ba
##fish
##itas
plausible
resid
intact
booth
misuse
parked
compensate
delegation
neglected
retaliation
Mess
gary
pause
##iants
abet
spoon
exploited
subscribe
exhaust
disenfr
Welfare
baff
cuz
##rics
butts
blames
afterwards
Review
trapped
Spec
ancestry
floating
suburban
ye
##atural
##oran
corners
affordability
partnership
hiking
Marshall
sheriff
Civ
Sigh
##ui
##ndry
output
Ash
evac
insens
loop
Correction
130
verified
indicator
circumstance
Transport
Corporation
widow
pesky
Gene
##press
##28
libel
##awning
repent
contributor
Warri
favourite
Franklin
shining
downward
minors
Wasilla
restriction
insisting
quotas
Kan
##woman
improp
Fraser
ruining
counseling
recycling
Kerry
Tra
reprehensible
relies
preschool
##eeee
implication
engagement
traitorous
insignificant
Due
bunk
uber
soap
sciences
desirable
ideologies
Marty
bribes
speculators
Troopers
Establishment
Fool
WAT
aqu
wil
toys
evolve
servers
disagreeing
striking
sacrament
Oklahoma
marches
ecosystem
recipient
royalties
AH
Friends
##bies
##anded
disli
drastically
Brady
Prod
Explain
dismissal
Scotia
encountered
ICBM
PLEASE
tas
##za
##AM
##change
ridicule
sentiments
Corp
bonuses
imprisoned
hoo
##FE
##wall
stoo
detract
Blood
felons
keyboard
##OSE
cooper
monopol
wrec
reimburse
shifting
cans
overreach
feather
messenger
arrival
##rolled
bottles
ecl
GOD
persecuted
##wy
whomever
imbec
incoming
##onsider
factually
syndrome
harms
feedback
1999
disciples
tapes
FROM
superficial
Domin
euth
##piece
##fits
overpr
bragging
detriment
Stewart
Bang
bounds
##ᴏᴜ
ree
amnesty
guided
Nowhere
establishing
hurry
secretly
functional
sponsor
overlooked
unrealistic
##productive
CI
Kle
Mental
halt
sational
wears
justices
meanwhile
denver
##ottage
ethically
cardinal
astounding
Doc
NG
perj
insiders
Brilliant
holder
recording
senseless
sewage
tribun
##etti
harassed
temporarily
culpr
PERA
infallible
dile
##orized
claw
takeover
Prize
lovers
##rugman
cabin
gallon
gesture
Environmental
evidenced
Lang
##29
##thr
premature
##ommy
##ECO
bumper
ED
dating
tac
tout
unelect
scoring
specifics
Nevada
Likewise
sinners
rebel
psychology
sandwich
prosperous
supplied
wannabe
gerrymandering
##pelled
conception
Iraqi
breathe
consultant
Berkeley
injection
Ear
sigh
##TE
fruits
##antan
##ources
wealthiest
customs
Kesey
Nels
nod
pfd
##IAL
toe
exac
peep
##ifully
blast
Prim
Churches
raping
athlete
steam
tiresome
jun
naming
##esa
statistically
confrontation
tantrum
vitriol
Zealand
Arpaio
Yell
##FS
##walk
##ᴏɴ
forty
quarters
infect
headqu
doubtful
bankers
balancing
Worse
eaten
Cardinals
acquired
sweat
Gosh
evidently
dementia
Pell
dro
Abortion
sucked
scenarios
halls
##ergies
hikes
Olympic
snarky
Polynes
Outsider
frivolous
lord
##nies
##UG
##unition
##weigh
Allie
traum
effectiveness
forming
processed
discriminated
contacted
desperation
symptom
Jenkins
Borough
Neg
Qatar
oun
foref
outweigh
parental
assaulting
Sandy
##ɪɴɢ
LEO
Pru
bio
##ivable
Staff
190
doubling
cleaner
##ENS
Israelis
advisers
CBS
Racist
##ᴵᴵᴵᴵᴵᴵᴵᴵ
wrongdoing
DV
Wade
mood
##ibs
interaction
loath
poorest
Colin
enjoys
Minnes
propagand
Interior
touching
outsiders
CDC
museum
##OG
wholes
##umbers
Heart
transaction
Individ
railroad
grandmother
##IDE
texts
##ergart
obscure
passionate
suburbs
##oppy
elaborate
83
dancing
##gor
##ppers
diabetes
remedy
traits
unfairly
stabil
thumbs
anecdotal
Kauai
61
pistol
rom
##aic
grind
grades
##ishment
reconsider
downright
intervene
inflammatory
exacerb
WTF
rust
##46
deed
deacons
##abul
prox
underf
Shanny
OFF
elders
adoption
groceries
diminished
miserably
xenophobia
TNR
horm
wai
##anne
compound
issuing
##aneous
operational
slaughtered
climbing
pundits
Ultimately
database
backbone
##manship
##berry
1800
qualifies
Account
casualties
oblivious
##itarod
pant
##TY
##estig
Chel
expon
slower
125
TOD
conducting
CE
Cry
##mor
seeds
Exam
subsequently
looting
Ath
Body
Laugh
ponder
pawn
##quer
treatments
preferences
obligated
culp
Hannity
infamous
Muss
Along
##reds
purposely
platforms
Goldman
abuser
entrance
sufficiently
Ts
TSA
Chamber
perv
##lson
examined
Hmmmm
ladder
vindict
iP
rethink
##ostic
Chry
retr
builds
reaches
sleazy
retailers
redistribution
RR
bum
lav
##55
##WR
toy
##imore
##uda
unim
##ecessor
helpless
1967
symbolic
synonym
##ogenic
nest
##isk
beast
##umph
planted
adhere
Comrade
weekends
burger
247
census
Belg
russian
absorb
profoundly
LOVE
Supremac
##BY
chips
wrapped
realizes
flows
socialized
morph
innocents
NEW
##ACH
cartel
ASA
Limb
rod
impover
lasted
##xton
oppress
colluded
collateral
redeem
Capitalism
pouring
uninsured
##antanamo
Easter
vic
edition
redund
polluting
punishing
darkness
frequency
prejudices
Mainland
indefensible
Faux
dip
asleep
diff
##pectives
##ernal
harmless
##forcement
alarming
##usalem
Roger
sustained
innuendo
Minnesota
94
Et
Ibb
PH
POL
Zion
##guns
##owa
infected
nonetheless
Coming
bullied
curiosity
sacraments
3000
overdose
dereg
Gates
Page
token
##alm
reside
smiling
ridicul
1994
derog
prohibit
baiting
Watergate
sacrifices
##98
heinous
##iberal
Clar
opted
filter
solidarity
##intendent
gates
##cials
##UM
ample
Weaver
mayors
##riff
critique
rails
Mostly
unclear
turf
accidentally
patriots
Sanct
hackers
parliamentary
Standing
squeeze
Drugs
Rent
sq
shifts
disinformation
predecessor
faulty
displays
disturbed
##orated
##ptic
spouses
bracket
maturity
PMO
submission
catastrophe
unaffordable
Ralph
Cad
LC
fist
##76
##verb
probability
obesity
Prom
fashioned
storms
ammunition
Krugman
Moon
RNC
sow
##ura
amen
Ali
facto
THEN
decreasing
attribute
conquer
noun
fract
peril
##identally
electors
monkey
##pring
##anna
Guam
freelo
suckers
warranted
incarcerated
prevalent
Thousands
Fast
Occ
Heb
Stra
inviting
##fty
relates
deductibles
Agreement
marginalized
##PTP
zealots
BR
Du
FPTP
##bands
therm
##enan
forfe
spelled
subd
##INE
##ointed
delusions
implicit
CBO
ranting
Romans
Costco
Fight
OTH
Vald
ppl
likewise
thinkers
dioxide
envision
blinded
struggles
Fascism
HN
lest
noses
arise
##ervice
marketplace
bites
##lamation
Beyond
versa
disrespecting
sacrificed
inspiring
McGuinty
Derm
Len
Sit
##star
whim
##igating
##oga
oppressive
##ribly
surviving
senses
cabal
Thompson
Personal
misogynistic
homeowner
diagnosis
enrollment
stereotypes
Carson
proponents
Taxpayers
NBA
lin
suicides
degen
Definitely
intimidate
Jerusalem
Darwin
Doyle
Lying
Wing
##orge
knives
newer
obedience
importing
antics
equalization
Elimin
##plex
achieving
incorporated
EXACTLY
mocked
Bridge
Whoever
versions
ensl
emerge
casino
beholden
sanctioned
Byr
Mach
shorts
##eling
##veland
demol
retiring
Exper
Scalia
favorable
boarding
obsess
commercials
unpredict
platitudes
belly
Title
Cate
##inine
beneath
Proof
Measure
brainer
Nevertheless
satisfaction
brutality
spiral
Urban
insufficient
Bundy
FAR
secured
terrified
rulings
receipt
boyfriend
rejecting
rebell
1996
flooded
Bat
Berg
Hurric
Throw
contemporary
Chad
hardship
holdings
homicides
Winn
inheritance
VI
nurt
anchorage
##ocent
##roy
illogical
ceiling
decreased
Alexander
descendants
Including
cemetery
MUCH
Credit
Hammond
AID
Swe
Tough
fuss
jails
tast
##about
perspectives
recourse
dismal
medicaid
uncont
mutually
TAPS
Uranium
Estate
QU
kettle
ink
##oli
adoles
edit
##aho
efficiently
departure
cigarette
Elli
drew
reper
proxy
transactions
posing
protective
Armed
THAN
shoots
starve
##BAMA
Major
misunderstanding
colonialism
congrat
unexpected
BBC
Fif
Sikh
doom
##enda
##agree
retro
signature
eventual
dreaming
Baby
Log
rh
chew
probe
appearing
wished
repealing
##sylv
incomplete
peddling
Masseng
extermin
overpriced
Kathy
bc
grey
nope
##News
##pen
persist
Perry
candidacy
##ATED
testified
sounded
commitments
1968
spineless
renewal
fishery
helmet
Somalia
##oenix
gren
lawless
logically
objections
supervision
##BODY
RAIL
firefighters
Aside
cheated
Aga
interpre
Capitol
##working
Solar
anchor
Chelsea
ASAP
Massengill
FIR
Sick
sib
##ilia
##actice
flipping
behaving
##ucker
Sports
deadline
horrendous
restricting
integrate
surround
Salem
sweeping
staggering
82
EI
KGB
NW
trace
wrist
scra
regurg
billing
erase
substances
weaker
Palmer
radicals
praised
sanctimonious
UAF
glorious
Magn
null
##AK
retained
activism
temp
1995
Access
shrink
lengthy
Pipeline
GPS
Pil
##itis
Web
repay
##stitutes
Conc
tariff
dispatch
aggressively
##originals
TFW
Bronco
counterparts
Football
Cens
Pers
POW
##town
whit
spark
##lemen
##ernity
visual
Advertiser
Worst
Murder
outsour
beaches
vigilant
LPC
Baltimore
busted
cites
##uki
##aning
cheek
unple
unrest
indicted
presently
imminent
##azine
culturally
##ATH
embed
Depression
audits
cheapest
Iditarod
motorists
denigrate
horizon
greet
mate
ward
Outside
magazines
inspiration
continuously
disguised
Greed
ridden
soup
Whene
##ocrats
##orker
freaking
softwood
collapsed
Bennett
##enanigans
Valdez
Whenever
OBAMA
nuns
##sc
##idy
##epher
##asses
Americas
wrap
factions
playground
memorial
swept
pressed
##ennial
spotlight
principled
consulting
maximize
disposal
Shannyn
Fer
Nam
##zed
manages
loon
modified
treasure
defenders
harbor
##ergarten
Cole
Iowa
Morm
Sales
##iy
scored
Spo
Wonderful
crushed
renegot
SHA
##via
##inas
##roven
Dei
constrain
STATE
Cleveland
courageous
lifting
preserving
components
admiration
Josh
cub
captain
fastest
titled
plaint
Treasury
sucker
contradiction
Pennsylv
derogatory
Later
gc
laud
##liest
chast
spam
diam
Origin
distorted
responsibly
difficulties
execute
furniture
liturgical
newcomers
Gib
pale
tho
##inth
##urora
excell
maf
induced
fuzz
Edward
reminding
methane
compensated
paradigm
licensing
Pitts
wield
##rian
##case
pert
Stick
strive
loads
tougher
warrants
dodge
Terrorist
molest
Sacrament
celibacy
NONE
Commerce
Anglican
92
commander
brick
##erned
benefic
moronic
Switzer
acquis
Current
discredited
Gordon
Pruitt
Cash
GA
iv
pander
##cons
##88
sevent
willful
prostitution
unfor
##aga
##iping
reliance
funnel
wishful
Space
shareholder
Grant
Neighb
COMM
Similarly
pharma
Patriot
Bart
Bene
Yawn
rode
maim
legend
extending
Revenue
seller
Congressman
falsehoods
DOC
ranch
##omaniac
casting
Mulc
Progressives
Violence
cocaine
EPD
##yy
##opic
cher
Trail
womb
Grab
auditor
pronoun
misunderstood
Limbaugh
Hero
LS
TDS
##ativity
##icorn
closure
emerging
exchanges
reelection
feasible
dated
ecc
overb
tales
pastors
nationals
##aaa
momentum
epit
Labour
rendered
gravity
Oz
tipping
upheld
charism
meme
Leon
arriving
faults
1993
hostility
sharia
Springs
Circuit
cooked
##hall
##itative
##icon
##idbey
shenanigans
##gey
##ieval
differing
restored
##ahou
completion
Oregonians
husbands
reservation
tinyurl
Gospels
framework
inconsistent
WANT
rope
saints
tourn
##voc
##itution
Trillion
goodbye
repug
deputy
100K
typo
Granted
seasonal
1992
assemb
iceberg
Debt
sycophants
paraphrase
orchest
Bin
Om
hobby
mug
##NS
incess
caut
shooters
Phar
Airbus
Provinces
incorrectly
paragraphs
drunks
undermining
ghet
##onge
##oux
centrist
sellers
operative
Pharma
1991
fanatics
interpretations
addictive
oxygen
abstract
unpleasant
Boom
oops
##tent
##UP
##ilies
afflic
Christie
clearer
optics
stripped
innovative
Koran
Lies
Nether
##cal
##oused
backgrounds
distrust
foundations
admired
##ipper
opposes
pulls
Aboriginal
rioting
lifted
outlook
Switzerland
AI
Ps
Sin
bats
##stick
forens
cance
practition
english
Guantanamo
Corps
integrated
suspension
##ubborn
restraint
keen
##cock
##ouye
ing
rejo
maneu
commend
legislate
Ark
mortality
##oulter
Disagree
Independence
CANADA
weasel
Eff
Ess
prefers
##perform
relied
NOAA
breast
Likely
perpetuate
harassing
tankers
Wyoming
facilitate
Fig
Merry
Yan
wings
clip
##pton
healthier
booming
50s
Within
revol
Commander
##ASK
##ijing
draws
insights
Compare
bribery
territories
reluctant
misdemeanor
ruth
##kids
Travel
##acter
spine
afflu
revised
snap
thirds
Against
concentrated
gridlock
##enzie
negligent
abolish
Pennsylvania
Cant
LMAO
Silly
rect
##sex
disabilities
##rah
evasion
futile
Glen
winger
##ombie
Ministers
Drive
deterrent
escaped
burns
rewarding
brightest
laundry
Opposition
vegetables
arrangement
Sid
Set
##vol
justin
dams
##ipeg
curs
precl
1964
##OOOO
Evidence
Industrial
astronom
astonishing
Fel
barn
dug
lend
##ré
fron
chop
lever
underp
socio
hardest
considerations
easiest
##INK
Indones
harming
Homeland
highlights
horribly
pomp
livel
proverb
plague
imbal
Close
funn
individually
appearances
thankfully
Seeing
Centre
determines
oversee
myths
reputable
Network
inventory
Authority
stewards
Possibly
penc
sill
gro
Repl
huff
ers
Translation
automobile
Village
Winnipeg
Downt
bark
dues
##giving
shaming
justifies
offending
timeline
Tok
projection
specialist
sunk
Study
Raitt
manufacturer
Ging
Yuk
lax
mish
##gated
##lat
##inke
caribou
antis
feared
##attan
disruptive
imperfect
carnage
FIRST
Mulcair
Fut
##inable
Iss
mole
cultiv
bicycles
##boys
mascul
Declaration
Avenue
decry
USD
confess
terrific
swift
meters
##olei
sniff
domest
crashed
Roberts
surveys
Hispanics
Mull
Pra
uploads
brakes
speculate
despair
summar
Students
Daddy
sabotage
Sell
wounds
abd
ironically
visitor
embar
Enter
plead
magical
excluding
plainly
dominance
MOST
poisoning
forbidden
offspring
disproportionate
bits
##nut
ingest
##sets
mexic
coat
appet
colluding
illegitimate
approving
environmentally
techniques
disputes
Higher
##OCK
deferred
hijacked
Damn
detrimental
plagiar
Bren
Eve
Einstein
FIN
ber
rival
inaction
##ambers
goss
##placed
incite
pole
interim
Shell
##ristol
labelled
righteousness
##▀▀▀▀
erroneous
FAC
Fisher
Pur
##ussy
benefiting
Beijing
Scar
prolong
papal
Ignorance
GR
HST
HIM
ripping
##farious
##ulates
alask
Northwest
##insky
Phoenix
celebrities
reacting
outdo
NPR
Au
rump
tub
stubborn
Inouye
bluff
planners
signals
equitable
debated
denier
predicting
grabbed
sustainability
float
Crazy
MANY
bandwagon
insensitive
Dermot
reperc
IMP
jan
##reated
##isting
subjug
instantly
Brothers
centres
criminally
statutes
explode
equivalence
consultation
dialog
Divine
barbaric
dilemma
Said
glee
##cers
##chester
##ighty
sob
Already
clearing
homophobia
Gender
Lt
baked
kicks
##see
cries
strain
footing
avoidance
forgiven
reviewing
Keeping
##anche
tendencies
Curious
bikers
##rie
##74
exceeds
##people
donating
concessions
salute
referencing
eyed
technological
reservations
Berlin
pedophiles
Dunle
Completely
Yah
cush
##96
crank
bluster
flown
wrongly
##RED
Denmark
producer
migrant
traditionally
1930s
Information
Bol
sixt
suppressed
blunt
##itson
Donny
identification
##akespe
matches
1930
beneficiaries
Netherlands
liveli
rushing
##bi
##hole
##kward
##erity
##eters
Whidbey
Trumpcare
adject
consp
replying
commie
Sold
Crosby
predatory
footage
Belt
Peninsula
lunatics
thesis
tasks
gub
hedge
##born
chump
##rued
clearance
dictates
gentle
Author
Doubt
inhum
Griff
Mission
##ipse
thriving
Shore
racially
listing
regulating
Gray
permitting
CPI
Commissioners
adjustments
shovel
Municip
oxymor
Rhy
Hotel
birther
headquarters
Dom
dough
wagon
##bn
##bes
unpaid
Evil
praising
explosion
Jersey
burdens
ounce
Lost
Maz
bald
allie
Whit
inco
handy
operatives
Spend
approached
Keith
Matthews
Caucasian
Mir
Nun
fentanyl
stip
neat
10th
depressing
Area
demonize
grandstanding
Deputy
automated
editorials
overlook
breeding
crafted
Silver
Immigrants
Emb
Sep
Sach
##bie
##IO
##75
suppliers
defender
relocate
Proc
Ministry
Speer
mafia
Gingrich
##akespeare
Pius
Xi
##mble
traction
profiling
cement
malign
chairman
EVs
portrayed
virus
Downtown
Form
Jenn
##dp
##utifully
##aya
nefarious
exor
unacc
Dont
encl
nearest
14th
travelling
Voter
##LI
##oween
##thetic
##endar
poop
scorn
longest
##ugen
Example
##OUGH
criticisms
phrases
Strate
scholar
Protestants
stereotype
fatalities
voucher
Transportation
450
Rules
##icidal
##igs
asinine
seize
unse
descent
Prison
alongside
nominees
Economics
sneak
Members
YEARS
Wavemaker
Paxton
2F
Bah
NS
##andy
Andy
electron
empir
impunity
revis
hugely
##riminal
indicating
disservice
Oswe
disparity
interactions
Coulter
gene
##oving
##ement
##DC
infilt
accountants
##ippers
virtues
Swamp
academia
mobility
pumping
conceal
steadily
contradictory
diagnosed
Karl
Corruption
congregation
Luckily
Border
Mis
##athom
miscon
staffers
independently
Richards
tanker
rebuilding
Punahou
Nearly
repugnant
IR
Kate
Soph
Woman
poo
abomin
diat
redn
violently
procure
influential
packages
##comings
bore
mute
##BT
##urb
coerc
heresy
Shakespeare
capitol
memor
dogmatic
dividing
##IONS
hosts
Recon
Hilarious
Mob
Warming
mac
reson
intensive
undergr
##ako
wordpress
Newt
shortcomings
##ospher
disappro
malicious
abandoning
distribute
pools
CONT
Radical
boycot
spokesman
deployed
anticipated
Liturgy
Corn
Li
hmmm
virgin
discharge
slant
Senior
Adams
hybrid
virtual
accidental
ALASK
martyr
disposable
foll
padd
rings
##page
##itious
Starb
commissions
##ahl
legalizing
victimized
constitutionally
colonies
Wayne
Snowden
warrior
OTHER
Fe
HER
cog
freed
folly
gop
motto
##rained
##oft
##opian
##olph
##izable
##ellar
muster
audio
athletics
endorsing
exaggerated
Repeal
laptop
ESPN
unelected
Aurora
Cops
GBA
##34
clam
spying
Whats
registry
##ohlf
detention
crossings
Enforcement
Watching
Cultural
Gill
Js
dy
##pret
fore
seized
intends
Clown
##ophobe
Scand
##afia
nominate
termination
Fascist
mockery
Excuse
fantasies
Ibbitson
diatrib
Bi
weep
altered
reliability
##feas
subt
organizing
demonstrations
complexity
Lastly
adulter
betrayed
Jacob
Ambassador
slogans
81
por
##rock
grapes
slur
##archal
Jesuit
##ENCE
grandkids
cyclist
simpler
contradicts
blogspot
##foundland
Traffic
##abulary
79
yea
##houses
##etr
notions
allev
knocked
##ucci
flop
slime
Forg
detained
roadway
patently
Drain
COMP
##oridation
utilize
Different
DHS
Hund
Helf
mold
##enna
shifted
##usable
frenz
unl
consists
subord
signalling
depressed
futures
operator
Spencer
barred
Marie
gradually
Juda
Interestingly
Esk
Chiefs
interfered
ecology
crews
scholarships
spokesperson
nonprof
Ty
##dale
##ʜᴇ
hem
heap
makeup
concede
classy
colony
rented
unders
ambulance
Ide
consensual
Huge
Jam
WS
dull
mc
##idels
shaft
algor
justifying
unm
thrilled
assessed
##urring
##lando
ANWR
##ISA
unfunded
harper
ANYONE
masquer
Kapolei
embedded
fog
hers
##gam
##hattan
##iliar
trot
aggr
Trumpism
remem
handlers
Wells
critically
Manoa
Series
Saj
##iami
inexperienced
Hort
MJ
aided
bil
lined
lament
##EP
##itives
heated
Truman
##peak
##awd
marvel
educators
##phones
appointing
##liable
Cogh
Portug
attributes
LAW
##statement
illustrates
TWO
psychiatric
relentless
Diego
Mack
Ranger
gau
hills
##bat
##inence
trophy
obt
friendship
bullsh
cookie
corridor
eup
jar
##arin
notable
neoc
intel
Chev
ISIL
##ufi
hello
verifiable
Vietnamese
remarried
Milo
fulfilling
demeaning
AW
Cause
Hung
Ped
Yesterday
##ja
stored
tripe
Chance
extortion
Reich
skim
misplaced
##phem
Lev
erosion
hydr
Countries
occupying
##laws
endlessly
clouds
abundance
notorious
Mussolini
COR
JC
Leah
##isiveness
##urities
subpo
##atherine
Bernard
1965
dodging
enhanced
Nelson
PRES
Sky
fiber
##corn
stages
commentator
antagon
revolt
Suz
surprisingly
fundraiser
oligarchy
abolished
Randy
outlawed
vessels
Sachs
ps
poth
##upt
##asse
conn
conj
##ocating
sloppy
Leban
##ecessors
disclosed
bailout
Wildlife
##innon
Bethel
650
Lucky
Ridge
duly
freeway
formally
predecessors
Robinson
embracing
atheists
airplanes
Animal
Ditto
Yikes
laz
##MI
inse
tract
Train
compan
##iano
##ickers
daylight
insists
administer
##ILD
toilets
Freder
artificially
celibate
fuzzy
##ospheric
Gate
tel
zoo
##hot
inad
##earing
Claim
locking
classrooms
##iversary
Newfoundland
fallout
##REN
Crooked
crosses
reportedly
CBR
hypothesis
contaminated
Episcopal
overhaul
IL
dots
tender
yo
##uer
##tha
takers
monstr
preparation
prohibits
##ilingual
affiliated
recreation
revelations
Layla
arsenal
perjury
Ferg
Moral
muck
shuff
seated
Alan
##tts
##aterally
Poloz
dependence
resisting
introduction
Peterson
canadians
dimension
entrepreneur
rewrite
obamacare
Bureau
hob
vain
##IAN
##inav
reception
deceptive
leech
Stats
##econom
postings
generic
entirety
balloon
dedication
savvy
1986
circumvent
titles
holocaust
inspire
vocabulary
##osaurs
vibrant
vindictive
repercussions
thwart
##arations
worldview
eloqu
housed
quicker
shutdown
Counsel
universally
disappearing
assimilate
Oliver
unpredictable
Rhyner
2030
emulate
##ravel
slanted
brew
figuring
banner
Genesis
Boys
adjustment
analyze
louder
Large
lending
##RK
reh
##umin
##aple
unreg
Chen
herb
realise
moniker
illicit
preferential
Generally
Double
Coghill
Cdn
Pull
gifted
##dioc
##athing
conject
craw
handout
lover
honoring
personalities
halfway
11th
alcoholic
legitimately
begs
Syndrome
omn
DJT
Suggest
Powell
Words
muzz
ted
french
unav
##text
vegan
Ignore
scarce
empowered
Academy
Bears
anarchy
shun
gray
surpass
awkward
##ISH
circuit
creature
##poken
McKenna
apostles
bolster
ideologues
eclipse
Hurricane
dang
fost
beans
##ammer
contents
giveaway
advancing
locate
contracted
technique
1982
shelf
unreliable
stripes
Ellis
inconvenience
sorely
Hindu
motorcycle
Sanctuary
Pharise
Hans
lust
navy
paved
##auth
##GT
Trumpers
persona
racing
##prising
##ophone
afforded
mommy
influences
responders
independents
smokes
Meaning
Babcock
misunderstand
VOTE
orchestrated
Future
gossip
Dri
kings
##edient
foreg
provoc
rapes
psychotic
strengthen
CSU
telephone
speculative
safegu
endeav
BAD
pals
pave
##odus
disson
Demand
generates
guessed
##incent
##ropol
##ventions
downturn
sunshine
councils
Sajjan
Dolan
hid
ost
##oops
##URE
##ultz
restruct
Imper
administrator
anonymity
libt
Linda
flexibility
Erd
Fun
Huff
Wohlf
aides
ding
nost
##net
##lett
employing
immigrate
Scary
deepest
rationalize
##ahahaha
arbitr
Louisiana
overpop
survivor
exhibit
##▄▄▄▄
Dalton
theatre
Kod
hind
##human
semit
hass
needle
drip
##eez
monarchy
confirming
##anyahu
aviation
risking
Governors
polluted
psycho
Judging
Massach
fundraisers
diligence
Bristol
aide
genders
scams
talents
behead
correcting
Manhattan
pushes
prisoner
horrors
characterized
EVERYTHING
bailed
##itize
##thouse
containing
spills
Alas
downhill
medi
genital
miners
transgress
kindergarten
blackmail
messy
ecumen
CDF
foreseeable
Bir
Fac
Skin
vanity
##bound
##icating
##imum
liabilities
charts
##osc
crashing
Chicken
##ishes
veiled
proposes
Dean
specialists
identifies
instituted
emerg
midnight
Shameful
##aaaaaaaa
accumulated
Opinion
Dunleavy
Scandinav
Ding
Jihad
##ete
plumm
crawl
##enson
##aching
bund
collision
Gods
percentages
adopting
Emperor
Starting
deposits
dismantle
dwind
unilaterally
89
Focus
Girl
PART
Rs
creed
hoot
pond
tamper
##PO
##kee
##ibble
sphere
intox
slash
menu
Argent
caus
focuses
Scarb
Ironic
rejects
pleas
calculation
Confederacy
Officers
exceeded
Statistics
seminary
championship
obtuse
Clear
Nome
fals
rud
##pro
##atist
reef
dock
##umping
disqual
bets
scan
handgun
militant
analog
apologizing
sensitivity
Classic
Dreamers
Stanley
disadvantage
pragmatic
WATCH
Judaism
Number
Virt
nap
reun
cling
Champ
fares
corrections
remainder
Coff
advisory
philosophical
venge
disparaging
Indonesia
Base
Rural
gases
traps
flowers
trapping
influencing
objectivity
unionized
Works
muscle
juice
Knowing
Safeway
PUBL
grievances
pertinent
dissonance
Wohlforth
Birth
Btw
Kam
Kitty
Mu
Monse
punk
##Can
##ᴇᴇ
shrug
##peace
arctic
spike
##idently
twelve
downside
fluff
Orlando
judgments
THERE
##INT
11e
devout
Carry
copies
associations
songs
Angela
ritual
Lawyers
forensic
Massachuse
Cities
Gerry
Rona
etern
sizes
##tick
##CO
##hame
##igins
##unct
knocking
unicorn
powerless
destined
hunger
urgent
restrictive
1989
intoxicated
Bird
DS
Hale
dar
oral
aboriginals
maniac
Stadium
prescriptions
exposes
charade
militar
wallets
indicative
Communists
1972
starvation
extremes
civics
Strong
pregnancies
geography
##ineries
instructor
Memorial
Prayers
Bloomberg
Barn
sack
##mighty
##44
##inqu
abject
crass
guides
decay
whereby
salv
Whole
complains
fooling
volat
consistency
chiefs
Paying
expenditure
exponentially
Hebrew
##feasance
Umm
cope
erupt
eats
##hoe
##ïve
##orum
stellar
##unami
continual
attacker
THC
colored
negativity
##phy
barking
typing
originated
16th
Flake
unden
INS
manipulating
matching
Ident
Halloween
Himself
rabbit
squeez
fabricated
Workers
persuade
incorporate
Nik
SD
SEC
whip
stoop
heels
##ighted
Stre
slice
poses
grounded
robbing
Indiana
twisting
Barrow
wholesale
Miami
Py
VW
pipes
##kish
##78
##enth
upro
##ption
repubs
repatri
cargo
todays
projecting
organizers
Blair
Spending
falsehood
Manager
Obamas
inflict
enthusiasm
CTV
##setting
Aquinas
Cas
Witness
proactive
##eled
Chug
extinct
Prove
vermin
parishion
Walter
poisoned
islamic
escalate
Sudan
affluent
Starbucks
Bry
NIM
Subs
##gt
##best
##mes
##low
##word
##eard
feces
Thatcher
schiz
annul
ᴀɴᴅ
inhabitants
HNL
TRA
##bly
exh
drought
speeds
Connect
annih
banana
salesman
mislead
DPRK
imperative
escalating
discernment
##corp
Fidel
Hood
Hockey
Syn
Tier
##iree
##serv
##AB
##mind
##SO
##will
##igue
seiz
##ector
contend
drift
commuters
defends
Howard
Arg
##ippi
smartest
positively
bankruptcies
digit
Recall
container
unconscious
Femin
Helfrich
Dark
Eld
Lam
##WH
##oner
##uality
evolving
##ciences
##orrent
environ
heartless
curtain
appointee
unprof
##oncile
bidder
Model
masks
Organization
cousins
##ᴏᴍᴇ
Juan
predominantly
Kurds
Hundreds
Scarborough
Massachusetts
Founding
JJ
Ummm
##opoly
Donna
cheats
lighting
globalists
earns
Quick
DOG
Resources
spirituality
accordance
disadvantaged
Monsef
rans
##gi
plates
coer
presumption
Beh
##orris
successor
foolishness
cartels
illnesses
calculate
belliger
##keeping
GIC
HECO
Lack
nast
##nell
##icum
pec
##aches
invention
surrog
lineup
responds
caliber
radicalized
LIKE
Latino
Talking
CSIS
admirable
rumors
redistrib
drowning
jerks
lynch
Krist
piv
##ioned
##ulant
franc
choo
tapped
clo
faction
continuation
Allow
unsupp
##ulsion
exploiting
upgrades
override
garner
Belgium
proverbial
outdoors
Gab
tad
waking
##sp
indisc
relieve
freezing
##emption
##ICK
prospective
litter
censors
achievements
Semitic
rebellion
oxymoron
Ferguson
Equal
Mufi
##rets
##agu
regrett
singular
##umbing
Guarant
Cargo
Depends
sticker
methodology
plantation
ACES
##estyles
monitored
Basic
withholding
confederate
Arkansas
Liar
Nap
racket
##ourge
relat
Brun
generational
accountant
metric
fixes
travels
##ammad
dependency
Boyden
introducing
foil
Standard
enablers
helicopters
Langley
Bubb
IV
MAY
Und
nicer
##books
##otton
chill
##ophren
multitude
##overty
##balls
Carib
licence
robot
struggled
Careful
terminated
exporting
Dogs
eccles
cautious
Blam
Bingo
GG
Gang
Kame
Po
bands
cottage
##zhe
##bury
##lance
##fell
##LO
chocol
Station
employs
numbered
lightly
layers
belonging
dumbest
lifes
indefinitely
Universal
Candidate
Fant
Jail
Renz
##bu
##pensive
stacked
repost
reconcile
defam
Shall
monsters
mills
##ommon
dictatorships
Fourth
evangelicals
Haiti
redundant
COUN
Mafia
##evelop
prestig
##thur
dearly
##ountable
Clapper
Prud
expectancy
severance
improves
Swiss
feeble
Treaty
Yukon
Mans
Olig
Rain
rice
rider
##bird
##ono
##esar
stack
shills
sel
##allam
choke
Assault
##ACE
marched
overwhelmed
prolif
adjacent
turbines
maneuver
Nathan
Poverty
lens
inmate
whiners
comic
goat
atom
##osoft
interrog
medieval
##ortune
regulators
admon
tennis
incompat
attracting
##IDENT
quantity
Cust
GU
Rud
Zinke
##atus
##anking
##llie
Thinking
usur
##awk
drastic
increment
Proud
Sheesh
growers
obliged
narcissism
sprawl
underfunded
conjecture
BAN
FU
Sister
Waters
rationally
tiss
##ouri
##ipher
interm
invoke
canned
calendar
witnessing
suspend
cracks
remarkably
fisherman
bragged
transformation
Mattis
ruthless
ND
Sue
Side
pion
pine
##arctic
realization
carc
obese
bigly
submar
provoke
popcorn
Orders
embold
1973
lifestyles
transgendered
##breaking
Chairman
Cherry
##abusa
anarchists
##bestos
Dict
Hahaha
PBS
Vance
##ompass
comical
seals
quasi
endured
edited
##olds
newsworthy
professions
ordering
announcing
occurrence
rainy
toddler
dissemin
Mississippi
##hameha
NIMBY
EM
Kaka
RV
Tommy
bacon
##adel
outer
##bean
ills
wholeheart
windfall
films
laughs
##ophobes
PCs
doctrines
switching
Supply
libraries
accompanied
##MHC
##ga
##58
##asphem
whiny
stark
heed
slowing
badge
builders
##pared
bitumen
Blah
staffing
squir
engineered
Slott
renewed
##aconian
uncovered
Respons
undergrad
Imperial
tube
yep
highs
refineries
extr
protested
##ALS
displaying
TSX
staunch
Quran
impoverished
Osweiler
Erdogan
Cart
EMP
FIRE
lug
##arial
##imity
##opl
Christopher
loathing
misinter
selecting
archives
Radio
skyrocketing
Loretta
ivory
ACC
Kur
Killing
Mort
Sisters
VII
##rists
##BE
##igma
origins
seas
outfit
imo
payback
Alice
Steel
antiqu
1200
Ontarians
accusers
disorders
MLA
angels
fronts
frenzy
PUBLIC
Lobby
Sum
##60
##entions
##iller
chuckle
cried
repud
commuting
confined
divisiveness
narratives
Leftists
floods
naïve
terminology
Netanyahu
humorous
omission
lonely
Beautiful
endeavor
Jennifer
Cay
cage
##rums
##mons
##ulse
pepper
crickets
##ecked
surprises
McCoy
freight
##loaded
egos
cowardice
Leadership
inexpensive
spectacular
Snowfl
Hoo
bung
##Trump
##isance
forc
manners
crow
setup
irreg
##ISE
deval
##edients
Driving
reacted
puppets
Winter
Cutting
moderates
dwelling
##oji
Gies
wager
outn
misread
##irono
superst
ordain
motivations
presumed
fluoridated
ceremon
lesbian
aug
hooked
##after
##sm
maps
poke
Repub
Reuters
Atwood
unfet
driveway
##ICT
Todd
admittedly
deceive
analysts
Kaiser
Chapter
betrayal
Compared
nickn
cleansing
Klein
Horn
Seth
rabb
##emocratic
reset
1900
excommun
creativity
##hement
dreamers
fluid
Sara
Guardian
tabl
Early
fade
wary
frat
##ievers
intake
proportions
lasts
trustworthy
sickness
prosecuting
Speak
pursued
MacK
wheat
Baptist
LESS
Mol
Yak
##ooch
disav
##inement
buffer
##www
organs
1997
precip
categor
disproportionately
Sweet
unfettered
Link
Ox
ports
##inational
##estead
##uling
perps
infection
Clause
oils
missions
moderation
##OLD
layer
1988
obtaining
Timothy
shadows
quotation
FEMA
Phillips
infinite
Fuk
Muh
cam
dumber
gag
##ingle
profite
cheques
logs
shotgun
embassy
touches
Similar
malfeasance
4000
instructed
untruth
ABOUT
MLK
Blessed
abysmal
##diocese
Pit
Tenn
jam
kudos
puck
##ati
##thren
infidels
failings
anniversary
encompass
Maher
patriarchal
BECA
Surrey
iPh
tram
trashing
une
crumb
amended
coy
blunder
extends
Arts
patr
pretends
steer
LIE
Extreme
undermines
adventure
Culture
gn
##VES
Chem
##ults
vehement
kindly
nationality
170
Judicial
acquaint
booted
venues
Popular
principals
gratitude
ingredients
Blaming
Daw
Liter
##Leaks
shat
hash
dischar
bliss
hardware
Alliance
redef
Yours
Constant
Interest
domination
disciplined
millennial
indoctrinated
odious
Nuggets
disenfranch
incoherent
Hwy
Hirono
Ow
lur
tensions
##inning
##ico
##ayers
shaped
contra
persistent
wherein
##olley
##prises
tops
##cedes
sourced
Islamists
readership
insistence
advancement
Freedoms
clericalism
dismantling
woefully
Microsoft
Tokuda
SER
ferv
nets
heath
##uli
disbel
acr
spur
spade
scoop
USC
relieved
brokers
identities
##portant
ratt
displace
trashed
rigging
Overall
Trek
containers
illustrate
Taj
empirical
wholeheartedly
Apartheid
Hang
wag
##69
##RU
##utory
hemp
agn
signatures
argues
##phia
qualification
vacuous
combust
blinders
assessments
volunteered
##moil
##urtz
inspection
McDonalds
unanimous
consecutive
Kamehameha
Range
Saw
WAR
bob
dash
##itia
##lle
##omor
decimated
restoration
##braska
penet
historians
slee
1985
holier
uniforms
exaggeration
Continued
manipulative
Average
WIN
WOULD
woes
##bled
##urated
##idents
ObamaCare
Allowing
victimhood
trusting
Missouri
FAIL
Coupe
Adventist
Prosecutor
tournament
Kodiak
Foster
Hur
Honda
Mas
##fires
peas
##ounters
##assed
##ogues
veil
skate
shortages
preferable
assemble
deflecting
fictional
Hanabusa
pledged
##onzi
duh
lac
##sl
##FOR
shepher
adap
instability
listens
denounced
pennies
Socialists
contentious
##UTH
##posterous
diplomats
christians
Turns
lapdog
intrinsically
Ratz
Ways
cakes
hoard
yoga
##UA
##vals
ank
Reason
cannon
criminality
uncommon
Finland
Moving
Millenn
SNL
rumor
contamination
triumph
jeopardy
proximity
siblings
##fund
##MAN
haha
agg
unin
believable
allowance
untouch
optional
Place
tracked
broadly
branded
textbook
grasping
precedence
amazes
segregated
OLF
awaiting
EL
Fried
neph
alas
gravel
##ensed
appreh
##oyd
interc
Editor
cycling
bicyclists
Klastri
festival
disguise
LW1
acquisition
Hook
Horr
##bp
##lies
##38
##YING
alley
Justine
Clallam
Fraud
majorities
enshr
Cooper
emerged
mixing
bodily
MLB
Criminals
mushers
rehabilitation
enslave
procurement
CMHC
G7
MC
dares
gamble
##atisf
finite
Requ
purity
disapprove
fitness
##ACP
##bitant
DAY
Slavery
graduating
archaic
Opus
calculations
imprisonment
assignment
HOA
safest
realtors
inhumane
Dale
##ho
##olm
##ussel
trop
##angement
regain
Anne
slapped
behaved
filib
neighbourhoods
espouse
stunned
Garland
Technology
vendors
harvesting
europe
DLNR
Catechism
Wyn
dive
zip
##abl
decriminal
marital
compliant
frightened
Tweet
Refugees
featured
Rolling
vandalism
schizophren
Done
Earn
Hud
lion
liken
##occup
unab
amp
greatness
gloss
Allan
generosity
ridings
pollute
specialized
handsome
##IGN
Treason
translated
granting
Professional
rushed
Cupich
Burns
pulpit
Mercy
Target
ambiguous
selves
Baker
Dyl
ELE
lays
##natural
##dles
##mouth
##check
##ilani
chambers
unqu
successes
researching
literacy
##versely
disordered
axe
contingent
tacit
outnumber
Joy
kl
ox
##full
notch
wast
allocated
enables
##ountain
drank
scares
experiments
openness
hourly
revoked
egot
comprised
resistant
municipality
##indsight
moderators
sprinklers
hesitate
unequiv
##anasia
Days
powder
##asions
##ionage
whims
stench
havoc
Trinity
##ackets
##apore
compat
drained
underway
denouncing
arresting
2500
moms
premises
Editorial
turmoil
favours
outcry
deprived
Failure
follower
BECAUSE
2g
Ry
XX
cf
kle
##opoul
##astics
defund
schism
handles
placement
##uffed
bitch
##arranted
Polish
Nebraska
summit
ADF
exercised
revolutionary
Teddy
highlighted
contraceptives
sociopathic
Barbara
Halifax
Creator
Box
Hend
Porter
##ZZ
perceptions
warped
swath
Amoris
pressures
Agent
stuffed
capitalists
undemocratic
##untled
1975
exercises
dismissing
chemistry
boggling
pesticide
surgeon
Increasing
Tradition
ETFs
revisionist
Kasich
gloves
Lenin
Ain
Gent
Sant
tents
##gg
##ompet
##idious
nepot
Trident
##ackers
amid
terrifying
respectable
accounted
potatoes
Euro
##ANCE
##bitious
belonged
1971
lunacy
Confederation
pardoned
randomly
mosques
anxious
explosive
Griffin
Coupeville
Raid
sidelines
##yon
thirst
thee
staring
soaring
cringe
incarn
Infl
secession
Doctr
redirect
brethren
##ikan
Whitehouse
18th
Grade
unnamed
Idaho
chanting
chocolate
##adelphia
Biblical
Golf
Kings
Kyle
Pont
Ree
##OH
stain
prostitutes
incurred
compact
medal
prophet
parcel
administered
armchair
polled
multinational
##ARP
##ORS
staffed
reflecting
Kellyanne
ambitions
explanations
Fargo
pitiful
gallons
Kentucky
Following
##steps
stagnant
FACTS
euphem
parishioners
Ratzinger
Vo
Wat
Waste
ducks
##iw
##km
sealed
Trick
intimate
composed
blasphem
statehood
##avid
antith
encounters
crosswalk
##ICS
diversify
Accept
obstructionist
preserved
brainwashing
Condolences
steril
Neighbor
DDS
Hem
Hob
Ian
##iables
##54
##iggin
livest
##enshi
infested
##issible
distress
Parad
removes
felonies
squandered
heroic
Salmon
stabbed
enabler
Priests
Retire
Terrorism
delicious
G20
cord
##etitia
orph
Trud
nevertheless
editing
Demon
passports
remembering
radically
designation
laughter
verses
Federation
helmets
Alternative
handicapped
Caribbean
Agr
Hart
IED
fences
##llor
##orea
##antics
Whites
ard
refined
carr
roost
histories
##practice
policeman
equates
competitor
Sword
unwarranted
GOVER
exported
overrun
Hamas
parrot
indignation
Spoken
Scaram
Ave
CAD
Gra
Lex
Mars
fury
journ
##atown
##unts
gracious
draconian
payouts
intercept
Prices
watches
existential
Whereas
Plain
mentor
PFDs
deficient
Recently
Used
briefly
Prayer
Lebanon
Muse
Nenshi
fathom
##zos
##liness
notably
politely
poet
##ussen
enters
differentiate
primitive
squarely
scientifically
##ographer
Latinos
nickel
underestimate
Emergency
Elliott
Renzetti
2B
CJ
Joh
dining
supplying
feud
Weird
invaders
defr
sunset
Infrastructure
Buffalo
arrangements
irregular
EIS
Fal
HIV
Lau
Mons
Nike
Pub
##rom
clerk
##mann
distaste
detest
gasline
READ
mouthed
mechanical
EXP
##market
Musk
chinese
erected
Yellow
GOVERN
piles
##b0
##LP
shoved
Particul
cleanup
COER
unsc
Bett
consulted
Evidently
gentlemen
floors
Pearson
Terrible
consolid
NGO
tribunal
DD
TOT
awe
##uv
##chant
shark
##ivist
##iani
underw
emission
##riet
provoking
##graph
##eeds
exploding
hearted
variables
grads
farmland
sacramental
benign
CETA
masquerading
wiser
##eason
gosh
##odies
Butt
excise
Jesse
demonizing
silenced
deporting
Contrary
AKA
bombers
ATF
devastated
utilized
Caesar
Running
promptly
dioceses
incompatible
Cover
Mak
rib
##ZI
##ersen
accent
systematically
runner
Presum
ideologically
gasp
arranged
curse
cryb
##lights
##looper
Brett
tribute
Austin
dismissive
prevailing
commandments
Families
Mosul
demagogue
peanut
pencil
Dix
LOS
hides
mouse
##math
frown
##oured
needles
preempt
reflex
evap
parach
boast
##belt
Contract
Record
mobil
multipl
##quirer
WORK
##aggart
Giessel
Jun
Ple
Term
##xx
##itics
commands
emigr
Screw
combine
ensures
prohibiting
outlined
navigate
sailors
hydrogen
Warriors
lavish
electronics
Sophie
environments
GE
Jude
KILL
Syl
bake
borne
fid
bees
onerous
asbestos
##anto
expelled
standpoint
deple
distort
Expl
ensla
mouthpiece
attracts
1979
unproven
Kellie
AMERICAN
Ordinary
Caucus
##asa
fork
##verts
allied
##ospect
##aws
Alzhe
workable
imped
medically
specious
##rolling
##OOK
##ideline
puppy
rescind
unnecessarily
pedophilia
##ussell
dentist
Leonard
Bets
FED
PRE
ect
upwards
##ibus
unpr
brands
##cont
slipped
Level
expressions
punct
dangerously
dumpster
bureaucrat
mythical
Philadelphia
Gardiner
vigor
##rentice
angst
peanuts
grenade
DIA
Kid
Narc
OIL
Sou
furious
raging
##nuts
##gic
##uates
##eread
Whose
plun
unatt
resil
clutch
intensity
presumpt
sock
##ifically
equating
connecting
petulant
nuisance
briefing
kissing
incumbents
Hypocrisy
goofy
practitioners
klept
Camer
Hor
cue
rite
wicked
##rina
##pc
##stock
##ersion
##odder
plated
knuckle
##lict
##velope
minerals
roaming
worded
solitary
detain
similarities
publ
Murphy
elder
absurdity
reinforce
judgmental
analyst
diminishing
privatization
Patriots
tangible
Devil
inadvert
Presumably
Coh
Dig
Jere
Nich
pyr
tread
##era
##esus
##lyn
##illac
ascrib
dole
needless
ambitious
receiver
##OUR
weaken
characterization
musical
1976
pitcher
dinosaurs
aims
fifteen
pseudonym
AGAINST
LBJ
Hat
OB
Pension
Round
##zra
##bour
##etano
##unting
overweight
attain
##erte
installing
wrongful
covert
respectively
##ONS
Parties
Quote
initiate
slowed
Adding
disgruntled
Singapore
skepticism
exhausted
Marcus
Comparing
Boz
CV
Ketch
Moses
Worth
##orating
##aried
##olutions
##usk
suicidal
crock
defenses
##forward
vacancy
characterize
verse
layoffs
Slow
Mercedes
rescued
spewed
mileage
abundant
aspirations
Broadway
lodging
improper
diatribe
enslaved
Eh
Pew
Tel
##bé
##lie
##otent
##istine
upward
grif
perverted
cozy
Compet
supernatural
characteristic
pretense
Final
publishes
##afi
matched
terminate
geograph
proceeded
Raise
Osama
earthquakes
imbalance
IRA
Ve
##core
##play
Reporter
stray
multip
golfing
recovering
selfishness
##ICAL
Muni
partisans
unleashed
stalking
touted
incessant
restructuring
Bond
Dor
FDA
Miles
Wol
##rage
##iology
crushing
incest
##ashes
complement
seriousness
messing
arming
Southeast
appealed
ecological
tossing
mechanisms
degrad
observer
Nigeria
pompous
BACK
pics
yach
##cour
##mel
therein
underage
##ocrity
refr
confron
Branch
Schw
unsuccess
1969
hairs
Waiting
Planning
elitists
Magazine
denominator
reelected
LONG
fawning
hay
tying
##ridge
##FD
##ogging
fever
sheets
twin
legality
gloom
boil
mattered
smallest
streak
Marco
Assist
astute
hazardous
scapegoat
scumbag
Replace
exorbitant
livestock
Az
TTC
Von
aiding
fom
iota
ling
lakes
ration
winters
##rus
##iking
##cion
##hop
##uten
Threat
stump
aftermath
Shaw
slate
restitution
Reese
excite
negate
##annel
accommodations
##ickenlooper
Semitism
soda
gouging
epitome
Chenault
Pharisees
Rasm
hp
##TN
justifiable
##obic
Shop
rests
territorial
BCL
Southwest
verge
Write
Steph
Boyle
fundamentalists
forbes
collapsing
culprit
ridiculed
FAA
HIGH
KM
Lem
Youth
offends
runners
slurs
babys
##uously
congressman
fleec
##oooooooo
##crowd
conquered
##ariably
cohorts
mildly
vapor
Historically
WikiLeaks
deregulation
Original
Mazie
Dana
PV
fodder
yer
##anol
##asers
outta
plut
clicks
crumbling
whichever
Weap
bugs
eminent
Unemploy
procre
motions
complicity
protectionism
portions
rounded
DEM
Businesses
jacket
cynicism
malls
Stanford
eternity
TRE
Ven
hmm
##leans
Chip
callous
Chinatown
ANT
directing
Remove
discriminating
malpractice
junkies
pumped
disparage
extensively
collaboration
jewel
varying
constraints
Gaza
Il
Tam
pious
vocation
hefty
##ianae
politifact
##arner
pops
antif
##ASH
Antarctic
defeating
LEFT
euthanasia
Hod
lbs
nays
siding
##nold
##donald
##laughter
##hed
##killed
##ights
resorts
newest
brow
##itized
##OLE
bothering
Incred
Wallace
ambition
decreases
Headline
Buffet
Choice
hearsay
autonomous
Occup
Drop
Ele
Gig
Hoff
Russell
##inates
brill
accust
recuse
throne
concur
earliest
suscept
Spen
appropriated
muni
1945
sympathize
McGill
Hilcorp
Piercy
recycled
OPEC
congratulations
accompanying
mathematics
abomination
Museum
Suck
dens
##bank
beware
chuck
##pell
indoor
##aki
defy
creators
utopia
reflective
NEA
fishy
broadc
Tele
screams
synod
Scottish
hijab
prescribe
parasite
receipts
telesc
Ahh
Edd
Hab
Mitt
Mug
lamb
##itur
shamed
neol
##ulator
clan
disob
thinker
appra
blink
loading
credence
Levant
urine
selectively
Leaving
updates
Marxism
stimulate
tsunami
flourish
diocesan
Etc
alleviate
patrons
Danger
HV
Rolo
Vic
Zille
pussy
sau
slick
##rades
##93
##BOR
##IX
##py
staged
Trent
pej
altering
plunder
downfall
##grown
##eele
##prom
Allies
Brand
painfully
declines
disprove
asserting
blowhard
structured
strawman
emphasize
moderator
unprepared
dynamics
Autom
excellence
MIN
Pred
RS
Roth
RIC
jews
yup
##mph
##qus
##mentioned
outreach
upkeep
adam
preposterous
##ailable
##akery
distortion
facet
biking
courtroom
##feteria
Gross
240
TOO
attendant
nuanced
installation
Winning
LEGAL
overthr
tastes
Particularly
Betsy
Kon
NC
woke
##gon
stressed
##immer
adjud
disarm
guiding
infract
hardworking
promul
##umbled
repeats
creator
##IONAL
savior
Capt
distractions
launching
bells
wedge
tyrant
reversal
cookies
Joan
##burgh
pronouncements
droves
Bos
Male
oct
##taking
##95
##qa
##Wh
##amas
semb
segments
genes
doubles
modify
burial
generalization
lieu
Greater
accomp
perfection
harmony
conflicted
WWI
grabs
translates
lengths
atmospheric
recycle
coordinated
adherents
Impeachment
Prudhoe
Hickenlooper
Yay
##UE
##ref
worsh
interventions
expired
sexes
landown
specialty
##ANC
##ethe
Morning
##UTE
conditioning
conditioned
enlightening
stifle
dunno
silliness
Municipal
##ropolitan
compatible
Scaramucci
Dim
Lester
MBA
Raven
SARS
binary
bilingual
##aned
##aro
notified
liver
##unci
adage
##roved
spies
recoll
Shan
##ierce
Seaton
Scout
forgets
designs
snopes
13th
veracity
advertised
bubbles
recruits
boomer
Madison
tyrann
masse
WORLD
nostal
Zone
dick
##ran
##bels
reop
shack
plumbing
##inted
Weld
##ittance
preseason
fluct
beneficiary
irres
damning
complainant
purple
fellows
dictated
omitted
unchecked
indifference
bullshit
BMO
Core
oz
##alysis
fro
bystand
##elp
##resses
securing
Comb
politicized
maintains
delaying
unwillingness
manifesto
contingency
CFL
Ec
Eight
Laz
Nord
OIA
Wald
dummy
linking
##cill
##LESS
##enting
##ibber
##eline
spree
belitt
##ancock
pollsters
hunted
despised
REIT
Rocky
Bobby
industrialized
poured
gratuit
appetite
vehemently
HERE
##dc
##lain
##aren
chess
##oski
myopic
Wealth
traject
##uffs
swinging
testament
generalizations
temps
obstacles
LIBER
QBs
privatize
Holder
humiliation
cohes
DRUG
instincts
Catalonia
reimbursement
luggage
Ezra
Rape
Zupt
tension
##enb
##acul
aboard
Troub
unified
basing
famine
genetics
Pract
absol
destiny
cheers
##yrics
sorta
defendants
DOWN
undec
straightforward
##loat
perpetuating
stressful
Duncan
scrutin
staffer
Buddhist
kilomet
mediocrity
Nichol
Dame
Ky
Kis
dorm
umb
##itim
prose
aggreg
rightful
emperor
##ussion
##READ
Critical
enterprises
Plant
tactical
rigorous
Moose
Telling
Maryland
mechanics
alienated
Mililani
Victim
Karen
skiing
orthodoxy
Kakaako
misinterpret
unquestion
Ketchikan
Kend
MON
nails
##weg
##inctions
##inges
sting
goo
abort
someplace
commuter
screens
flipped
putin
Orleans
traff
approves
coloss
purvey
receivers
Marines
sinner
Nazism
Massive
trooper
volunteering
Leaders
fortunately
cancelling
oblivion
abhorrent
Polynesian
Ahhh
Kra
MAD
Taggart
eugene
pend
vag
##aron
Trait
overcrowd
Hein
phobia
Refer
boor
Peoples
lacked
Marriage
Beck
Flat
STUP
Incidentally
settling
diploma
heavens
Propag
injustices
Québé
enrolled
Micc
gauge
degradation
Fres
Madd
TER
ranging
##bay
##IANS
##73
##erates
##alc
graves
backp
requesting
advising
negatives
awfully
necessities
##rapol
survives
declares
disputed
Mauna
coffin
venom
gigantic
Italians
stereotyping
martial
architecture
Ruiz
Apostles
remedial
imbecile
Primary
##opoulos
Data
Tac
##cut
##aba
##awned
##ounty
##uciary
blond
invariably
looming
misled
professionally
tours
afloat
diversified
transported
cooler
Relax
mercury
proceeding
hierarch
CDN
authoritarianism
naval
enthusiastic
stirring
shouted
merchand
saddened
forefront
Auwe
cogent
provocative
STUPID
COULD
theocracy
##isse
conned
outed
anyhow
accred
profiting
claimants
Crisis
priceless
##ISM
tenets
supers
175
examining
unskilled
comfortably
DEF
Billionaire
unbal
Direct
fortunes
eligibility
devastation
Papa
Employees
Chrys
SHAME
Kurgan
semblance
Gut
Karma
Rap
##atized
##imps
hairc
comrade
exon
crux
needlessly
preached
brackets
monarch
liberation
landf
organizer
pressured
mistreat
superintendent
Flames
Abb
secretive
Franken
Recent
warmong
Laetitia
optimism
misrepresentation
Baloney
obfuscation
accustomed
Bew
COL
FUN
pir
##otle
crises
Weak
1920
measuring
Meet
ineffic
Swift
SHE
anticipate
disconnected
resurrection
nutrition
Millennials
nepotism
Amer
CLE
cum
rav
vows
##norm
shod
##ibut
inciting
##iane
wrath
refinery
signaling
redemption
salad
ballistic
rebate
musc
steak
Recession
##izzly
briefings
tasked
Utter
##ULT
privatized
averages
Commandments
Temple
romantic
Cele
Dow
Hug
Jake
Ugh
lighter
##Tbp
##kk
##story
prair
##eston
deacon
pervert
handguns
THINK
cardboard
turkey
communicating
scrub
blessings
dictatorial
Growth
ramifications
detractors
pervasive
mexico
2gTbp
2gTbpns
Pine
Selling
UR
gaps
seaf
allot
tapping
##pert
##sof
##avis
Brain
Agenda
opportunistic
Grace
devotion
counterproductive
jumps
Provide
disturb
acknowledges
yields
supervisor
##OTHER
deceitful
undercut
mysterious
unregulated
unsupported
Cove
Coup
Dut
Hire
Kiz
Rite
vest
##aque
##bid
##vity
inning
##igible
chron
arises
grands
reliant
slammed
conco
##iums
blindness
straws
##103
Auto
whisper
comedian
monopolies
##volent
HQ
HAD
Kiss
NL
##EW
##otive
shores
exert
Changing
##roots
scor
##umbo
Liberalism
armies
##letter
178
ineptitude
resemble
Dodgers
discretionary
burglary
antiquated
Doctrine
Hop
Hancock
KC
Tun
Terry
karma
vom
##ivities
tails
alph
##athon
emoji
##feld
##ificent
discarded
homestead
recalled
discouraged
rotation
clinical
Teaching
paychecks
indictments
spectacle
flexible
theoretical
slimy
Katrina
ransom
proliferation
Grey
Horse
##ski
##lifting
stove
##imme
##amus
livable
wastes
##elly
Weiner
brass
scoff
impulse
##ankind
famously
popping
equities
breitbart
50K
enjoyable
##ORY
##lighten
preca
##cois
speedy
Waianae
Faithful
tempted
temptation
Scientists
delicate
##ithmetic
stooge
Guaranteed
Gi
Soul
##Ps
##fa
##ulum
Tri
manure
grieving
brit
##rien
retiree
inclus
##prised
specified
skull
Conn
##yrs
faiths
Meh
volcan
demonstrators
SAME
Smoke
sixth
perpetuity
Break
resisted
patriarchy
bleed
Alexandra
inconsist
McMaster
Evangelical
curtail
ghetto
Masters
pa
roo
wandering
##bons
unear
Asking
smack
loosing
limb
Bills
exploring
Twain
Elise
compares
Norweg
feminine
Robertson
forthcoming
Libertarians
Potato
Student
lobbied
WMDs
Pret
SL
kow
mend
##53
##kill
bee
stigma
##abouts
##rik
economical
messes
##ANG
avoids
Greenpeace
Terrorists
tantrums
coercion
Cres
Git
Herald
Lic
Wes
bots
##aways
##berta
brink
flower
Share
choir
Goodale
learns
Seven
Sequ
windm
eliminates
encouragement
TRUTH
loudest
resorting
hrs
accelerated
parroting
Tobin
ELECT
trajectory
Boll
Sarc
Wash
ostr
##DE
inception
stakes
##iva
pews
##atha
insidious
handc
speculating
singled
awake
Schultz
demonstrably
##shell
integral
sheltered
obstacle
incentiv
lifetimes
evaluated
1940
gutted
weaknesses
disenfranchised
gaming
lb
lick
tink
vow
##rid
##zen
##CK
##WI
##otten
stinking
canoe
coined
##isely
genetically
finishing
##geries
informing
trappers
definite
conventions
ethn
preferably
analys
conflicting
fanatic
boxing
censoring
Emily
advertisers
Garden
##bbie
bulb
inexc
Oddly
dispensaries
relentlessly
arbitrarily
superstition
Bit
Rox
Summ
Vision
WERE
germ
worms
##roads
spun
belts
scold
defective
slot
retribution
Forbes
sketch
Select
temple
1983
merge
Montré
Planet
persuasion
enriching
WITHOUT
insecurity
sodomy
crazies
##quisition
observers
Eliminate
adolescent
insect
Tennes
Alzheimer
NB
##VED
##orrect
##unks
poles
spar
dried
brat
parades
businessmen
gunman
Hills
expresses
objected
prioritize
freaks
battlefield
Turkish
certification
owing
Sioux
365
gutting
ENT
skyrocket
DMV
intrinsic
Filip
freeloaders
Essentially
mishand
adjective
Argentina
combustion
unbalanced
Cyr
hindsight
nc
##million
##foil
##ᴏʀ
##atists
graft
##assing
##anked
runaway
Clay
boils
Arnold
Whoa
arrives
autism
Colon
complacent
literate
assassinated
objectionable
##rupulous
Individual
##authorized
susceptible
Aer
Cod
CRT
MI
Rat
hen
mim
##yg
##inently
##utter
##apiro
idle
Shi
Shee
charm
thinly
##arms
swore
Block
motley
copper
McCall
catches
Breaking
steering
accuser
Parker
breathtaking
dinners
geopol
leanings
recruited
stakeholders
lecturing
intersections
episodes
pornography
rankings
disapproval
PRESIDENT
defamation
seafood
Hahahahah
Ko
Ton
dice
fuck
hord
harr
##ᴇʀ
pristine
stale
##oluted
scourge
eman
discomfort
##lington
static
Prohib
Guys
snide
machinery
seattle
temperament
MacDonald
fabulous
synthetic
Population
stabbing
PERIO
autonomy
remembers
annulment
Hir
RB
dudes
##IOUS
##worth
##udging
Storm
infidel
showers
Hawker
convoluted
burka
Southey
batting
Depending
hosting
##anderth
270
##osterone
prejudiced
inspections
suffice
Tribal
Multiple
Dubya
subdiv
GOVERNMENT
Québécois
Lago
Verm
au
duration
niche
anom
##struct
weeds
beta
backers
tee
impending
sled
generators
investigator
statutory
rulers
foreigner
succumb
horrified
addictions
Benj
Petro
##itae
Cheap
6000
LEA
Express
hippies
defects
strangle
AIDS
livelihood
dwindling
##olleyball
Montréal
Nate
bids
gem
yah
##pol
##owe
Them
##esses
##agne
transc
condoning
menace
patent
collects
smarts
separating
deleting
screws
sharks
nuance
tricky
vaccinated
alienate
mistakenly
endangering
exhibited
flavor
indifferent
wrestling
revisit
Dylan
Micciche
pup
##rition
##inator
whopping
abnorm
##ocally
exodus
overfl
courthouse
Library
disple
assisting
Integ
withdrawn
intimidated
Eucharistic
Buffett
theologian
Theresa
crusade
publisher
BEST
Dur
Loyal
Wass
pains
ripe
##bows
revert
chased
##venant
##integ
cove
realistically
defen
protein
lessen
specify
directive
awak
breakers
disappears
Generals
audacity
validate
digits
bomber
##handed
toronto
impairment
dwellers
prompted
Brunsw
##cionable
Battle
Summer
aids
cotton
##iuses
##gars
##wait
inqu
weary
framed
feck
braz
##tingu
runway
comeback
Debbie
circulation
execs
weakened
goalie
ohana
Deflect
aiming
1948
warranty
unanimously
ambiguity
Geneva
disliked
##ᴏᴜʀ
laziness
hassle
tabloid
Propaganda
PERIOD
1B
220
Bee
Niger
aina
wors
crab
obe
##avez
untold
##atched
array
Neko
Appe
separately
Prec
Iranians
Attempt
transferring
sheeple
CONS
laden
patronizing
Beware
Aber
APP
Gork
tid
##hea
Thor
hail
wasnt
overre
payoff
Steele
##ificates
##ava
restroom
affront
populous
##atorium
metrics
##ATES
urged
##aphosa
mailbox
pitches
rainbow
Apart
adherence
Supremacist
unprofessional
Ewa
Kob
LET
MAR
Maine
SMH
afore
merry
##lades
##owars
onkey
sooooo
##endously
arithmetic
measurable
observing
Funding
delegate
McKin
Movement
BOG
automobiles
##iagara
toxins
Specifically
POLIT
Domestic
relativism
CRTC
Arist
Pill
Paid
Winds
aunt
lenders
##FU
##erpt
onus
##abee
outperform
drilled
attest
costume
Colbert
variable
Manifest
Arabic
fortitude
bodied
semantics
SUPP
discounts
upgraded
annoyed
Avs
corrob
humiliated
gerrymandered
whistlebl
grievance
ACTU
paramount
repetitive
pyram
LG
Roof
##door
##bra
##65
##umpy
thrust
depreci
encyc
judgements
imaginable
snakes
sinks
planting
commissioned
Texans
espionage
Annual
aspire
deprive
Lutheran
cohort
manslaughter
Nanos
Dollars
Fifth
outsourcing
Unemployment
Brunswick
Junction
LED
Zimb
##cott
##TV
pew
upsetting
##ibai
##agles
clout
groping
amuse
intoxic
extrapol
debatable
sadness
COM
colorado
wooden
buttons
Magisterium
stringent
proponent
Renew
vengeance
excitement
##ibberish
COU
Sax
buss
hust
piling
sid
sinc
ᴛʜᴇ
##92
##watch
##outhing
##ocke
noisy
unwise
##ignment
##amps
locks
attackers
30s
Acts
devote
peninsula
animosity
walker
copied
amazingly
##otesque
##attoo
tragedies
Marxists
gutter
Surprise
Raising
TRUE
##IFA
undermined
Orwellian
converting
Cadillac
hydroc
tissue
colossal
Brew
Dirty
MM
Naval
UBC
dared
jug
lyrics
wander
##dad
##ciously
##St
##otomy
precon
stranded
confessed
Twenty
historian
implode
1981
sustaining
reservo
foolishly
##IMIN
##abbath
surpluses
tyrants
untrust
queue
Independents
torch
Munoz
accelerate
Tourism
uncontrolled
assembled
tropical
Kay
Pole
Wie
XVI
hikers
sap
tarn
##Ch
##ᴛᴇʀ
hege
goons
##ivation
Trumpian
##izard
clad
disband
Chavez
mayhem
##landish
debris
turnover
swast
swings
religiously
Charity
flagging
perpetuated
MOA
boundary
sympathizers
Swedish
SPLC
mismanaged
collapses
Oakland
Polls
RESP
kidnapping
##READY
Sally
bending
##jones
##stated
##illery
##istries
##ocial
##osures
disl
spont
Weather
##icts
brake
Notre
excerpt
subserv
Minimum
17th
altru
environmentalist
Simpson
##ambles
derail
ALREADY
MAKE
acknowledgement
merciful
Journalism
upholding
obstructing
swayed
purported
waiver
interpreting
nonprofit
Catch
Corker
bind
cured
##rality
##ku
##vd
##uds
Initi
wringing
brav
lowly
Leo
burnt
varied
Carrier
Pharm
bankrupting
Buying
Desmond
Potter
Motor
atrocious
vilified
pertaining
cushy
Virtually
umbrell
inexcusable
Dief
Gir
Kitz
Morris
WP
wired
##genders
##SB
extingu
##unning
##agm
Universe
inclination
##OLOL
WHEN
unworthy
Humana
Atlanta
verbally
Iceland
advertisement
Banglades
fiduciary
feckless
joe
tum
##cars
##══
topp
heir
invites
twit
subset
geniuses
charlat
surgeries
12th
treas
logo
sniper
turd
1974
bribed
gallery
Articles
fundamentals
adversely
panhandling
reeks
naysayers
Boss
Gerson
cull
##43
##erog
##itory
##ensibly
screed
Shel
loony
Somewhere
circular
Enquirer
sleaze
Disqus
litre
Communications
stealth
Providence
rubes
dodged
negligible
quantum
##organized
demented
YEAR
ALASKA
Spenard
Band
Nash
Search
Wend
wynne
##PE
##DING
##ʟʏ
toes
Than
##abwe
outlandish
envelope
crunch
disall
##irection
amok
belittle
recoup
articulated
viability
Complex
skipped
##arring
apathy
labs
Martha
impacting
accomplishing
hosted
searched
perpetually
IMUA
misdeeds
PDF
denomination
Burnaby
sequitur
Cassandra
transplant
transcripts
morphed
algorithm
COUNT
OPP
RED
fierce
oily
##igator
##amiliar
acute
Shia
50k
wealthier
forgiving
Kenya
Goldberg
chaotic
Bellev
discounted
immensely
trespassing
Muhammad
Eg
Gara
Gomer
Salt
Took
Titan
auction
creek
fart
jay
reread
##eering
##felt
soooo
Trumpsters
cluster
Andre
downgr
Shurtz
##ahan
McE
organisation
##insider
Plat
enjoyment
hunts
##etermin
Queens
standardized
intrusion
attendees
Serious
steals
weaponry
Klux
Raymond
Investment
hammered
assimilation
jealousy
resurrect
glaciers
uproar
filibuster
merchandise
defenseless
DEC
Gren
Lob
ken
vowed
##47
##anthrop
##rec
##igators
haunt
##anders
##erved
underwater
interchange
Consumer
fallacies
horrid
replacements
smoker
PRP
celebrations
1977
asserted
HAWA
pitchers
330
##boat
proclaiming
punched
JOB
delighted
parameters
anthropogenic
warehouse
iPhone
DI
HATE
Spect
ot
vert
##UMP
##VING
comrades
unravel
wrench
misf
cafeteria
fearing
hurtful
protectionist
spreads
packs
Samar
quantities
BoC
1867
confiscate
catering
Mohammed
undeniable
Huck
Hands
JZ
MRI
dawn
jest
##68
##haw
##aroo
compel
##rov
undergo
brows
regs
glance
##icular
salaried
200k
unfamiliar
erased
##strong
Quest
motivate
doctrinal
conquest
subscribers
Julian
Bailey
Respectfully
stewardship
Muller
redneck
belligerent
aggrav
underwear
inadvertently
pendulum
AZ
Fle
Langu
raining
wig
##rays
##YS
##words
##entious
##stop
agit
##apo
##ifier
remod
asses
newsletter
monkeys
##wealth
delivers
testosterone
Thanksgiving
##ported
urging
Deport
SAP
virtuous
1978
tightly
Augustine
##believably
##boards
Resistance
hormones
Gateway
pejorative
Gro
Lar
bree
##wit
##vis
##olith
upbr
bred
indeb
defies
##standard
illum
relegated
penalized
parenthood
ruins
##ihi
Everett
Angus
Economy
colours
vetoed
Teacher
mitigation
##break
Rubio
skyrocketed
Methinks
infringed
aforementioned
Zimbabwe
Camb
gong
rer
##die
##foot
##idivism
withheld
peg
thereafter
unauthorized
##berries
bru
##velops
systematic
transp
##ESE
188
sinister
sensibilities
Tebow
occupants
DEMO
Buds
ashes
pharmac
roofs
Maxine
reproduce
Veteran
samples
Engineering
confronting
tyrannical
Click
Darn
IX
auster
marsh
##NING
##57
##itous
##iculture
##urate
Chile
perverse
indec
Isa
passages
millen
Maria
earnest
##strom
renamed
reformed
rationality
cowboy
Salv
brutally
alarmed
Citizenship
megal
torches
Join
lipstick
harvested
Laura
nephew
journals
austerity
Bor
Cz
EFF
mansion
ott
##made
##fy
##XT
##ᴛᴀ
##otine
##ithe
dos
fry
leagues
ala
scales
Ship
##neath
Reports
schooled
confinement
Rein
destruct
##REA
succession
counse
banker
##USS
##ospace
intrig
discoveries
Founders
trendy
optimal
creeps
FORE
escalation
grassroots
hazards
sprinkler
appeasement
McGuire
Coalition
annexation
AHCA
Suzuki
##ussels
Cue
Cyc
Homes
Niagara
Tiger
aint
bbl
eric
gibberish
tighter
##eon
##card
inb
##otch
prerog
stairs
##ivisible
arson
Cancer
artistic
maternity
slug
meanings
Construction
coverings
opera
punks
Flint
ADA
##ova
##ammers
nominal
analyt
dodger
forecl
sprinkling
denominations
Traditional
contemplate
overpopulation
Aces
Diam
Jeez
Kail
Nut
ʜᴏᴍᴇ
##rat
##isphere
withstand
clich
supplier
scout
publically
Consequ
stupidly
severity
Irma
Herbert
1987
favoured
clarifying
HELL
reciproc
fulfilled
punching
oligarch
Extra
rendering
dreadful
canceled
Nunes
Weapons
untrustworthy
STA
lions
ᴜᴘ
##eus
##ɴᴇ
anath
trench
repressive
reclaim
schm
sliding
retention
effected
capped
authoritative
lightning
Honor
radioactive
counselor
pumps
IMM
miscar
baptized
rituals
Nigel
Byrd
indiscrimin
disobedience
Dise
M103
WON
Yᴏᴜ
cathed
kits
raz
ɪɴ
ɴᴇᴇ
ʙʏ
ᴀᴛ
##┈┈
##osaur
manif
cla
underwr
restoring
promot
trumped
pollut
contracting
Newsp
petitions
hideous
exceptionally
disciplinary
elevate
TDW
adjusting
indulge
ideologue
residences
amenities
antisem
malignant
Horton
Mugabe
ɴᴇᴇᴅ
Jess
Kaw
Tired
ba
bounce
lite
ranges
##yes
##utista
sung
someones
grotesque
bland
antibi
disagreements
exploded
footn
establishments
rename
entertained
ALSO
Room
narcotics
succeeding
Victor
institutionalized
Fascinating
molested
Lindsey
Sacraments
scratching
travelled
baptism
dwar
OCS
Tennessee
Cord
CUT
Ft
Sgt
##bull
##horn
##erd
##ongh
##llll
allocation
ampl
goodwill
caric
slush
slipping
Firstly
despot
purposefully
participant
bombings
conspiracies
Ukrainians
centralized
dissenting
RRSPs
unintention
unequal
aggrand
Chrysler
AST
Aaron
Ouch
ROC
jr
wool
##isors
##uro
reminis
##ieties
##ierra
Fran
mores
biting
Beau
Partners
respondents
grader
audited
intentioned
rigor
Defin
outspoken
DEA
Typically
sneaky
mosqu
sacrificing
commodities
parallels
swallowed
Bautista
##RESS
denigrating
foresight
instruments
hopelessly
lungs
scumbags
Paradise
Cohen
shoddy
Bald
Dyn
Success
Tib
fib
pact
slic
##okes
##PM
##pie
heel
suite
frog
grim
retrof
entails
profic
thoughtless
condoms
##parable
Seoul
behavioral
Imua
sweethe
casinos
hierarchs
McGee
burdened
conflate
Sudden
Operation
cooperative
##ugenics
Richardson
Kad
PT
SM
SDA
Yout
kay
pent
tattoo
##ram
##NA
##37
##amount
asap
##abol
thanking
contrived
Shows
Uns
professed
Forum
Bringing
Perm
Newton
Oregonian
variations
booked
Kenny
searches
lifers
symbolism
spirits
exceeding
miscre
degrading
distinguished
Normally
Taxpayer
reinforces
denverpost
nastiness
atomic
Sylvia
Couple
Lil
Session
##rane
##uliar
##answ
##uddle
##ogl
##oodoo
decisive
admissions
Critic
Manchester
##eshiro
dissatisf
accommodating
schedules
simplest
wheelchair
Ignat
overruns
Nonetheless
weighed
angel
eradicate
fertilizer
panties
Psalm
agnostic
rooft
Wasserman
1M
Kenn
Pul
XL
gum
kevin
heh
##aphic
##uber
##ella
Anch
genitals
redress
billed
barb
renter
starved
negotiators
MAJ
streaming
lunches
##oku
possessing
Playing
hahaha
Evangelicals
##agram
causation
neoliberal
Vinis
ugl
##gates
butcher
arc
plow
##perate
scal
scree
solves
skirt
lows
facial
revolving
successive
burgers
perfected
filters
qualifying
neighboring
##rimination
##shot
coached
merger
##kyo
poisonous
sympathizer
Oscar
fabrication
tenth
IPCC
Kuwait
merchants
Fluoride
LCBO
LSD
prolonged
##uminum
defraud
Vermont
Benjamin
upbringing
Athe
BET
Dang
Eat
Haters
JD
Jama
RF
Ye
wo
##iantly
##cox
##alism
##ulative
Travis
Wheel
##ouring
arist
compounded
Andersen
infinitely
raft
potent
Islamophobic
Sevent
embry
dishes
strengths
captive
discontent
sects
Examiner
Eskom
Portugal
ankle
enshrined
vigorously
sauce
grandson
Windsor
Bangladesh
Deg
OJ
Pard
Seg
##94
##cents
leasing
##udd
Trumpet
amused
subvert
retaining
studded
watchdog
detox
applicant
Relations
spraying
supervised
lectures
zealot
patronage
Curia
Method
tinfoil
pulse
descriptions
##economic
salvage
volatile
depleted
Eddie
Duterte
Kick
Pain
Prav
##Americ
##01
##OME
##estation
liv
composition
goodies
smiles
Sheep
Brussels
involunt
Crus
heartbeat
Toole
professionalism
disrespected
stretching
inference
escalated
persuaded
gardens
LOST
confiscated
protocols
Idiot
Zionist
Vehic
Ger
Padd
##uis
##VEN
##anmar
stems
##olis
grove
diverted
artifact
insol
demons
completing
builder
##aterial
##ynolds
25th
grandma
borderline
homog
marchers
Defence
rotting
sympathies
Popes
dynasty
millennia
colleague
Rosenstein
Mormon
Reconciliation
Synod
320
Curt
Hick
Yo
bona
touting
##eor
develops
##actively
incur
accuses
Reps
##ahs
Letter
McA
revise
##ealing
##onsequ
Growing
variation
##III
nutri
archbishop
CBD
Monopoly
##ocalyp
##riendly
Rogoff
transformed
Technically
Commercial
msn
Tabatha
emergencies
seizure
Sequim
Humanae
Bellevue
Youtube
TAT
dunk
siph
##tf
##mus
##NN
##Us
Theology
##iege
critters
sailed
apps
propensity
leftwing
restrooms
responsive
Arr
roadways
Crap
traders
superstit
Willie
indicators
satir
punishable
occupant
nutshell
exempted
evaluating
espoused
##interested
phenomena
Barbie
Armstrong
Creation
brazen
indebted
Balk
Fell
pats
rife
vine
##eers
##mers
##icle
Thing
shade
unve
spitting
##erving
underneath
interstate
infur
parl
Clin
distances
lowers
##OPE
riches
figur
Nei
Twit
Abuse
efficacy
acquies
uniquely
##onnie
Helen
##ummies
broadcasting
Woods
culpable
emboldened
Gitmo
Titanic
Burr
Peg
Rou
gam
zombie
##icter
##urer
notices
leis
feathers
Stri
imposition
careg
desec
assail
slashed
extrad
capit
Conservation
penchant
Understand
cartoons
spews
Surv
recklessly
weighing
##EEP
retaliate
enlightenment
synonymous
concoct
FM
Sincere
WT
avenue
busting
dich
gawd
ninet
som
tally
##nery
haole
noon
##acteria
inconsequ
bloc
repulsive
longtime
download
postp
config
benefitted
construed
115
##eteries
weakest
uttered
rockets
condemns
Associated
Foods
Mandela
Princip
vendor
Shooting
unconscionable
styles
culpability
unaccountable
Cayetano
forcibly
Ay
Cy
Mills
Tan
hed
kook
pg
rack
alumn
##awker
commies
flame
flashing
stricter
ANOTHER
##ANGE
earner
priestly
Manufact
appliances
dictating
extrav
pleth
IND
##married
deficiencies
Bankrupt
Malays
gutless
obstructionism
sprayed
highlighting
accumulate
intervened
corresponding
lemon
abetted
Kaneshiro
Bast
BUS
LRT
Nort
Pav
Rational
Vitae
batch
##zes
##eur
##fly
##orality
##usa
abound
clips
##obber
graff
2050
freebies
Arthur
Tokyo
##regation
risked
succinct
ceased
bottled
escaping
CARE
cleric
extracted
tripled
plaintiff
##geyman
preclude
nickname
gratuitous
Initiative
Pravda
Cob
Cats
CCC
Element
Kaine
Mile
Pity
rash
tides
##aqu
##ngest
##In
ism
stalled
donkey
unknow
##venues
resolutions
understatement
dipping
concession
Glac
Beans
trustees
seasoned
urgency
Medicine
resigning
forestry
tightening
Rae
McKenzie
gateway
Hunter
hogwash
Pittsburgh
Hungary
Sarcasm
Diamond
Tibet
plethora
Hu
MED
Od
Sabbath
WC
laps
voy
##zo
##bri
##hin
##Me
##ira
shades
goats
prostitute
##agen
Channel
##fulness
smacks
flim
substandard
Hilliary
generator
druggies
protester
Minority
dispose
907
##ovich
beautifully
Lefties
darker
miracles
erratic
piggy
praises
pardons
END
cancellation
applauded
dentists
Scientific
Census
domestically
subtract
tedious
Maddow
##sofar
umbrella
##ocalypse
4J
550
Ages
Cult
Cubs
Fein
Kea
Lan
Mole
Visa
bolt
cbs
##dahl
##ller
bef
beers
##roid
##ilege
imperson
regrets
Shocking
##ANDS
penis
criticizes
UNDER
WHERE
digest
archive
mythology
loosely
indexed
hoops
breeds
Turner
discontin
sociopaths
Panama
utilizing
swearing
Increase
porch
Gorka
inconsequential
DES
Gonna
Kub
Vide
sorrow
##don
##56
##urry
stalk
dehuman
flipp
10k
purge
immigrated
uncond
comparative
spiritually
Austria
ITS
prevailed
concerts
steroids
adversary
##ongevity
Henderson
sweetheart
Catherine
LCC
RAC
lid
rivals
##bt
##iral
##mented
resides
poisons
decree
publicized
##arked
roam
Comcast
programmed
retirements
Edwin
verification
WHITE
succeeds
##oncerned
screamed
satisfying
freshman
combatants
Globalist
ENB
rabble
catholics
Silence
dubia
infantile
Ramaphosa
pacific
afflicted
Friedman
Trouble
Krauth
boorish
Sheehan
Gan
Jet
Pfe
fend
nih
quell
##har
hamb
repression
invoked
rooting
##iminary
popped
Proph
Complain
15th
Jesuits
preventable
decidedly
licking
malice
hallmark
##retched
wireless
Hughes
deployment
jewish
cockt
##iagra
kidnapped
pontificate
differs
astronomical
unicorns
peculiar
Retirement
Gong
IG
Paper
faint
gur
##war
##wind
alberta
backroom
consciences
elective
imposes
Shapiro
Demb
Revel
Myanmar
Schm
Schill
##ouche
##ombies
1700
Regional
congressmen
empath
measurement
acquiring
cracked
pronounced
SFI
Supremacists
Straight
ostensibly
intercourse
5M
Cathy
CIV
Ive
Sierra
fbi
mast
tut
##rc
##anie
##uliani
alliances
alb
##iebus
upfront
gram
grub
heres
blend
invasions
##icket
opiate
Goeb
depended
200K
Denial
Drill
afric
rebut
savage
Judiciary
stickers
prohibitive
SOB
Peters
discouraging
Month
disrupting
Economist
SEE
Keyn
gratification
Wyden
psychiatrist
Dodge
adversaries
pawns
##ocentric
loonie
Effect
Champions
coerced
Bettman
Born
Sacred
gad
mired
pagan
##yer
inhib
##chowski
graphic
sperm
payed
suppressing
coral
Alleg
boasting
aval
cheered
admires
internment
necks
descended
undue
exams
audiences
stockp
holiness
irritating
bailing
affirmed
##uscule
confiscation
Heard
Princess
bastion
puzzled
wiretapping
##bnb
Oxford
analyses
MAJOR
hitch
png
yada
prince
seating
churn
##ectual
spurious
quaint
propped
Isis
192
Brandon
swell
heartfelt
demonized
Enlighten
cheaply
alcoholism
stripe
INT
1966
1962
substantiate
traditionalists
settler
colonization
commandment
Reformation
EWTN
converts
Engineers
stabilize
Frederick
acronym
McCallum
lure
beacon
##eta
##ulin
##auer
##umps
poised
spilled
Reynolds
classical
##phalt
Ground
Drudge
Regards
alcoholics
literary
IIRC
abandonment
migrate
ASS
Winston
vaccination
overdoses
polarized
explosives
degrade
TAXES
cemeteries
abhor
aerial
Residential
masculinity
macro
ILH
discharged
Raiders
##utenant
Ayn
MEN
fide
##AH
##bin
##free
##FUL
##eses
youngest
arose
unused
incidence
##erton
infants
opener
Glass
autos
bulls
bullpen
1600
assessing
torturing
contradicted
hillb
Surprised
Jonathan
ICBC
Throwing
Territorial
humiliating
hauling
monumental
abetting
traumatic
Drivers
Literally
Disease
Rol
Sent
gul
laser
sord
##rer
##iks
##burn
Theory
tran
Cha
quid
scouts
recidivism
##angaroo
childcare
classification
listings
militias
apoc
McV
positioned
predicated
autocratic
ethanol
grandd
performers
cataly
##OOM
Anton
##mitigated
branding
diplomat
Popul
pillars
Official
suburb
reproduction
Saullie
Greeks
Gregor
lesbians
huffington
Skinner
graffiti
hambur
Ax
Lance
MV
bick
bakery
dol
gle
wiping
##rose
##wd
##itus
##storm
worris
contender
lawfully
defiance
##raved
minuscule
##incl
peddle
comforting
fingerprint
magnificent
mongers
vocations
OTOH
cheerleaders
loathe
ranchers
peasants
accompany
Celebr
Prohibition
Appeals
worrisome
Greet
Kai
greens
##fold
##itant
##igade
##ifiably
##issan
##upuna
marx
##ATS
injure
midter
compromising
negotiator
calculator
apparatus
CANN
gentr
Priest
Investigation
Sooner
plagued
botched
ecosystems
surroundings
distasteful
procreation
british
geopolitical
Suddenly
CIT
FISA
MW
Maple
Quality
bacteria
lam
tir
##nc
##anus
anointed
##cho
##apy
unsec
unansw
blight
backfire
conscient
factored
##omeshi
Ontari
Adolf
ordaining
babbling
nonex
##ursed
##afta
imploding
dumps
distracting
stationed
repaired
bitterness
evolutionary
forecasts
Refugee
conflating
leafs
Athlet
THANK
Lamont
unsuccessful
haircut
Manifesto
sordid
DPS
Gil
Pict
Rah
bern
rains
sans
ub
##count
##YA
##VR
ish
##idt
##kees
##essim
acumen
##achron
repub
20s
instill
##ierre
cannib
budgeting
Actual
multim
simplify
enacting
Albertan
Apologies
hyperbolic
prescribing
OSU
Lyft
##hillips
recruitment
endeavors
poetry
kowt
Elementary
Krauthammer
Games
Jury
Kil
OEC
Upper
cav
elic
kit
lag
lash
ousted
ump
##GG
notify
shaky
shibai
##ocide
outing
grin
betterment
##ancip
businessinsider
Priebus
sexy
watered
researcher
lightweight
globalism
collectors
incomp
Coors
Disapp
Jeb
mobs
Learning
oversp
palatable
mechanic
Naturally
Silicon
Falls
stooges
maimed
incremental
Hoffman
irrespective
anathema
Bom
Kane
Tul
Viking
palt
##ras
##adle
notification
##olar
shale
wouldnt
aluminum
enr
quagm
blov
downstream
refuted
smh
posture
scheer
##avier
raving
metropolitan
saddled
Marit
opportunist
embod
Generation
satan
altitude
INV
intellectuals
prints
unwel
drafting
BEL
prevails
surgical
genocidal
geez
notoriously
obfuscate
Krook
Boomers
Birch
darling
ardent
Language
prerogative
Award
Gone
Lame
Naw
Sab
fal
german
roy
volleyball
##nels
##gence
##PL
##atter
##eny
##itat
##isory
bemo
whipping
noticing
Trude
closes
clinging
strife
legislated
metals
competency
barons
checker
prayed
##piracy
silencing
excludes
egomaniac
comprise
geographic
neutrality
tighten
Annie
sinker
##keepers
tantamount
deprivation
HOME
Savings
levied
degenerate
sixties
Kailua
MER
Path
Slick
VJ
caval
eve
fad
pas
pads
sizable
##uan
##mings
##63
##itiveness
##otte
##usters
quitting
##acher
invoking
refere
##itsky
slips
internally
Edwards
psychologists
STD
##ammy
villagers
trailers
mutilation
##blown
Cheet
inspectors
Keala
boondoggles
drowned
eagerly
abundantly
pronouns
subpoena
forego
semitism
rabbits
Monsanto
Kos
Kel
Seal
TX
Viagra
james
oval
upp
##call
##SC
##oug
aborted
tru
##ifix
##owned
amazon
artillery
discrep
105
marking
positives
insurer
paternal
offerings
engages
shuts
##flash
##ifornia
oddly
Values
contradictions
CHILD
waits
Malley
pharmacy
alienating
Parliamentary
summers
Status
adulthood
halibut
Bennet
unilateral
polygam
mammals
squeezed
egotistical
Precisely
Keynes
Cosby
Ds
Gand
Koncerned
Ori
SY
Sod
cower
##tic
##41
##Phillips
##rement
stare
##opathy
aber
almighty
upst
unbelievably
unmitigated
envelop
clicking
##ifical
compounds
prez
spear
Sover
impuls
##angled
seeming
restructure
##lander
benefact
distinctions
##ediate
Smo
compromises
acquitted
overtly
preaches
preceded
uniformed
##crum
benchmark
raiding
polarization
marrying
backlog
collabor
Cannot
gestures
Carlos
Booker
Nugent
cadre
Identity
Narciss
yacht
reminiscent
850
Joint
LOW
PPS
Rever
gaff
href
nudge
##cas
anachron
##itality
beard
##imating
congl
pear
sailing
diapers
impede
studs
victories
testifying
407
varies
Charge
##letion
skinny
recommending
shelves
catechism
halluc
rallying
waist
Hilo
amaze
indoors
Selfie
PROBLE
Employers
infallibility
undoing
Residents
reprim
Dollar
ANTIFA
hegemony
OECD
paltry
CAR
Gonz
H1
Kne
lime
longevity
##sch
##comm
##alien
doses
gover
abrupt
leased
##arty
##apolis
preoccup
refining
substit
parity
NOBODY
misused
militarily
swap
corrupts
authorization
Scots
Chargers
affection
Quebecers
DOD
dinosaur
scripted
withdrawing
Upon
honourable
Return
absentee
Mitchell
Katie
Subsid
Hipp
KS
Marr
Pack
TB
ore
tipped
##uitive
##cs
##icates
##acial
trending
manly
reparations
deton
##opsy
##axed
curry
summed
##shed
implicated
occupations
sharply
queens
reversing
Opportun
Employment
Rupert
barring
Fantastic
Agriculture
Incredible
Fresh
Huckabee
huffingtonpost
Creed
Fill
WTO
daring
jesus
kh
##yton
##holes
##➤➤
stature
##ivility
outward
##eps
##plate
##lemn
##ometown
surm
collude
glove
campers
##atorial
Scr
##ediat
ceases
wildfires
developmental
musher
Collusion
unwashed
settles
pitched
Cubans
TABOR
Racial
Ignoring
sneaking
inserted
podium
Fluoridation
improperly
euthan
Bubba
disbelief
##alienable
Fest
Giants
Hail
LOCK
Winters
##bags
##leys
rez
##idity
##cels
asphalt
##ivists
arent
donuts
##places
disheart
smash
retali
transgenders
classify
cretin
denials
##isterial
Dement
Guilty
babble
##ITED
pleaded
LIFE
Payette
##blog
ventures
robberies
dismantled
Julie
pundit
panhandlers
unfolding
scattered
unimag
implicitly
Bergdahl
tampering
clauses
Garc
HY
Hunt
Pin
Pizza
cpc
gimm
midd
ndp
pessim
tiring
wikileaks
yawn
##RR
##inse
##itarians
##ariat
oft
stint
stumbling
fried
chilling
chrom
##ortium
croc
rightwing
wanton
carpent
leftie
planner
solic
memos
excused
logistics
Guide
fella
copyr
limitation
medicinal
Simon
nominations
CONserv
instructors
averaged
ConocoPhillips
transplants
Heroin
boycotting
Giuliani
Cambod
Lif
MB
Nissan
Sor
Wanna
ape
##billion
##IBLE
##err
##aru
##aria
inel
conund
allerg
fries
unen
poem
commem
bricks
##riety
evade
expire
Reed
Brook
collections
##ORD
500k
2100
##loading
ratified
spoil
mercen
strategically
endorsements
glorified
architects
resembling
SJWs
crippling
cronyism
neocons
Dawson
Paddock
Cell
GUN
Hub
bun
waff
##64
##fighter
##✔✔
##orus
##imo
gobb
##onel
##awing
Soft
afterward
enduring
edges
Mayors
burying
innings
imagining
digs
SOC
clarified
Turks
strategist
analyzed
harshly
misdirection
geared
seminaries
resembles
museums
infringe
culprits
Individuals
TODAY
Scandinavian
bundle
crumbs
Wynn
euphemism
quagmire
Fusion
mouthing
##wau
##edes
Thunder
butch
##iever
##agically
clog
backside
womens
superiors
joins
fills
ensured
photographer
transporting
spotted
bedrooms
TRILLION
Attack
eleven
anonymously
depths
CCP
HUD
rookies
Hindus
imperialism
preliminary
INCRE
Warrior
TFWs
Hatch
Lin
Tuck
diving
pittance
##nia
##esth
##amine
##thon
weld
##osl
unmarried
vein
smog
securities
monolith
strains
##aney
fixated
favoring
peacekeeping
Appro
Depart
strapped
Colorad
PRC
Politically
scandalous
awarding
Profit
EVEN
##kinson
submitting
rebuilt
pinch
enrichment
evangel
microw
Dubai
exacerbated
sixty
leeches
ceremonies
blasphemy
Cameron
multiply
Cyril
Fonda
HP
Lands
Siber
WOM
earm
korea
nude
tended
waging
##drew
##BN
##kh
##icles
##amers
chau
##anski
Inuit
Stuff
##amph
antid
Removing
Reserv
voiced
pleading
NAZI
##2017
##american
Carey
screened
bumped
Ernie
##keeper
Auditor
mathematical
realtor
Sitka
plaintiffs
dyst
transgressions
inclusiveness
extravag
Lakes
LAST
Vince
booking
sac
saga
tilt
##nings
##pipe
##LF
begr
##opy
##abble
hispan
##feed
carb
propping
provocation
wrongfully
Myth
buds
##annies
revoke
##itches
performances
Apples
inebri
robbers
interviewing
motorist
alarmist
Dioc
tremendously
unintell
Earlier
congratulate
Mormons
underpaid
safeguards
redistribute
Greetings
Member
Papers
cn
##uance
##some
##dings
##AG
##32
##350
##lla
bele
##thinking
uphill
usher
enl
cracking
Chick
Heather
induce
discord
##eseen
esch
socialistic
Peyton
statesman
constrained
awa
arrivals
##ANTS
explor
supermarket
substantiated
solidly
carts
##putable
smuggling
elitism
Illegals
Lewinsky
Discovery
Carrick
Trooper
bastards
esteemed
Behind
Pfeffer
Din
HON
SCA
gulf
hover
ka
ppm
woo
##adian
healed
##odle
##gebra
Trid
soaked
##uddled
overrated
newborn
scound
impotent
twent
##teous
charming
visc
##orkers
Blind
armor
identifiable
innate
Corb
perme
voicing
precarious
unwitting
accomplishes
caption
##world
secularism
commanded
certificates
narrowly
tunnels
endorses
bulbs
illustration
abolition
atrocity
casualty
Equality
Owners
Brotherhood
Mallott
Pastor
thermal
forfeit
companion
Garr
Hic
Opt
Offer
Rangers
Solution
Yale
biker
ul
##itute
inan
##omon
##sever
seam
allocate
disobe
incrimin
contested
refs
kidney
Goodbye
##atories
civilbeat
stupidest
##OND
##anners
BCE
paints
Willy
ADD
unsav
dreamed
excesses
280
disclaim
HELP
dresses
Victims
Costs
reluctance
vilify
UCLA
Lucy
McLaren
Civic
Process
unscrupulous
ENTIRE
sincerity
leisure
nonexistent
NPA
Pig
Tak
##live
##GET
##escent
##umsy
##geon
mah
unproductive
coke
flaming
Anna
Repug
authorize
Grass
##ITS
Iraqis
NAACP
villain
##marks
mounting
##olerance
Superintendent
Samuel
Soviets
stadiums
##rentices
accumulation
Fewer
slamming
pharmaceuticals
Kalihi
horns
##bridled
Apostolic
MILLIONS
envisioned
Brena
tubes
abnormal
unanswered
Bend
Bunch
Gird
Lamb
bode
gorge
##CY
##hake
##park
##wink
##stri
##etna
##actory
cradle
grizzly
##ampa
detected
501
encroach
Grad
divides
escapes
dissolve
derive
Milwau
sociology
brags
intimidating
islamophobia
darned
elephants
riddled
instrumental
Visit
Logic
lawlessness
marvelous
RangerMC
pavement
unabated
parachute
HAWAII
dichotomy
MN
Mist
NT
Yates
hometown
##lift
##ilch
deceived
compulsive
amoral
backf
USE
10K
Pros
terrain
Conv
Goodness
Index
Blow
##ISS
##ANA
Iron
designer
tenured
urges
##ITT
Worked
births
penalize
stretched
Players
Journalists
fertility
##achelor
##OUND
Fatima
definitively
Gibbons
Streep
recollection
Feinstein
Goebbels
CANNOT
Hoping
Late
Vac
giants
nay
##inarily
insofar
sund
leakers
Training
##played
spared
##beral
pars
immorality
phased
Arar
destinations
graders
905
normalize
psychologically
ratios
1963
favourable
Incompet
Incorrect
registering
madman
constituent
##ochial
fashionable
Directors
PERSON
EXCE
emphasized
persuasive
Create
Derangement
enlisted
bunker
obeying
AMA
Bolt
COP
FC
ray
tiger
##eigh
##82
##oners
##verick
##acency
worm
overblown
taxis
##othermal
##minster
proclamation
Harr
candle
replaces
Spin
collector
Floyd
pleases
slept
portra
episcopal
Danny
lockstep
Evan
WELL
habitual
Macdonald
Penny
Solid
##ATIONS
coordinator
accelerating
Brazile
BILLIONS
amateurs
##iphate
cheerleader
Chancellor
Snowflake
##enbaker
unearned
Bolles
Hog
Mut
Oxy
RBC
Tree
bowing
lingu
zombies
##nan
##icans
nob
energ
cliche
pretext
relocation
Anonym
elk
paraly
##urrent
##wwww
morale
Newman
nationalpost
Apprentice
applause
500K
NEB
catal
intrusive
##toos
punishments
Fundamental
deriv
##izzy
translations
strangely
rioters
combatant
monger
faculties
climbed
libertarians
anecdotes
shields
##atriotic
prophets
puzzling
Farmers
ecumenical
##Canada
Hoover
carrot
hierarchical
unsecured
GP
aa
fading
nada
pts
pier
rou
witty
##home
##inx
outbur
Stars
beforehand
Unc
immort
retort
collisions
Forrest
##armac
honors
Conspiracy
##unders
Amend
deportations
Transgender
scrambling
##guy
inappropriately
culmin
benches
CRIMIN
unchanged
Tweets
ingrained
cripple
Ghost
redeeming
Machine
Webster
##batross
libtard
unequivocally
GOT
Houses
VAT
##vie
##GS
outp
nov
wrought
slump
immaterial
##akea
solo
##umbles
polluters
Admin
blooded
psyche
Previous
INTER
Conflict
disgraced
Columbians
announcements
unheard
ABS
Avoid
##daily
cockroach
flushed
Female
MacKinnon
McEl
Definition
2x
Abe
HD
Ske
cob
kwh
rambling
##IB
reaff
stern
##chem
peaked
clumsy
Heh
Justices
condoned
Around
protestant
visibility
##ricted
auditors
Highly
EmX
Reducing
##worked
CHE
yelled
champagne
Malta
EXT
prolific
Advisor
championed
caveat
ordinances
iconic
diminishes
unimportant
Joshua
masculine
Strategy
dimensional
refriger
EG
F35
Pos
RUSS
##imoto
##illusion
septic
##ighth
solemn
maple
##izational
compuls
peripher
opium
opiates
##eads
provoked
expans
parody
ministries
continental
Goose
centric
credited
swung
superb
soundly
objecting
weakening
hospitality
NEXT
Funds
bloggers
Hasn
tomatoes
disciplines
Educate
PEI
Needs
hijack
Extrem
papacy
Music
masked
Creating
prelates
reinforced
ICBMs
wrecking
charismatic
Forgive
aggregate
DEMOCR
CIVIL
Milwaukee
Jeep
KEEP
MIL
Pens
Ri
Saul
##loo
##🌮🌮
toad
hauled
withdrew
shrew
shambles
quad
indian
syrup
##beh
striving
entail
depict
moratorium
youngsters
treach
erode
Bigot
Elite
gradual
rebates
precinct
Patric
Patrol
settings
skelet
Missing
1939
drainage
Upd
interactive
concerted
GWB
undesirable
nurture
gleefully
conjunction
Johann
Jeremy
NJ
PN
Vet
hush
laced
muted
niece
##rue
##borne
anat
##itically
##omi
##owl
##ersed
leather
themes
ado
defec
##eworthy
##manuel
avid
excrement
enviro
fixation
logged
animus
vacancies
disposed
copying
fanatical
Civilization
saturated
rigs
Heller
pitchfor
insanely
Tomorrow
fueling
##addle
##quiries
Diplom
IMF
welcomes
sequest
patrols
Normal
Wahhab
molec
unavoid
Saxon
Diefenbaker
Ganot
Demboski
3A
Dante
Losing
OMB
Pic
Sah
ip
mourn
rammed
wah
##rs
##rising
##49
##kai
##istas
Trash
hissy
##ipers
##ollah
props
propane
slashing
Compass
swind
185
checkers
preferring
circa
DOLL
prioritiz
unsure
pretended
Betty
remarriage
portfolios
OSC
adversarial
sycophant
undertake
dislikes
forefathers
landfill
Girdwood
Bru
Cro
GL
Pt
Takes
Vets
Zool
cuck
cuff
hunch
mixt
##ais
##gery
##eas
##mint
##orf
##alty
##ldon
##umoto
shud
##aca
fruition
chlor
outset
gripe
evenly
Wein
Weed
impulsive
Shawn
THESE
opting
165
BigO
Biggest
mandating
##ooray
##liner
philanthrop
towing
towel
##IMES
fiat
scriptures
partnerships
##auga
coordination
anecdote
TWU
##opedia
grease
Yankees
annihil
schizophrenia
mistreatment
Norwegian
windmills
ubiqu
BRA
M97
Nav
Ponzi
Vos
pits
pots
tidal
##rity
##cence
##cake
##wire
##stia
stroll
chir
Track
##acted
actu
blasted
2025
recess
##jected
monet
##web
detection
informal
##ointing
fallacious
revital
40s
##ASON
Paula
wildfire
intrud
magisterial
predictably
sights
intolerable
surveyed
joints
##breakers
Egyptian
Rhodes
Continue
suspicions
Supporting
Somali
Mercer
sampling
##zzzzzzzz
Admiral
remedies
Benefit
megalomaniac
Garcia
Flying
Tyr
hench
hugs
pest
ruse
##hy
reuters
shoving
overboard
brats
scrib
indis
impet
synd
immun
secede
solicit
THREE
##REED
ergo
Neanderth
##quez
appropriations
Depl
greener
incompetents
psychologist
Herr
noticeable
diversification
academy
Rohing
Rocket
CHR
springs
palace
Survey
1959
ENOUGH
widening
degraded
anticipation
featuring
Wahine
demagog
outsourced
shuffle
Chugiak
##oplasm
telescope
Creswell
Salvador
antibiotics
AOG
BRO
GS
Pion
Roh
Uof
Wong
sacks
vern
relic
##olani
shalt
sooo
Chat
payday
reliably
endemic
##ERAL
workings
Actions
Amber
Polar
intelligently
utmost
separates
Buzz
civilly
warmed
ATM
synag
##IFF
Holmes
tackling
##oshima
vigilante
crazed
ROI
Buddhists
pacif
obsessive
renegotiate
adapted
misfortune
Biz
ORS
Rach
gin
gor
jacked
muff
##lass
##MET
##JU
inve
##urers
readings
jobless
humankind
communal
kinder
fairer
Blvd
##ippy
##ARy
##headed
##ORN
135
calories
rationalization
kicker
rounding
unpatriotic
##addafi
FAIR
unjustified
Barron
theoretically
destabilize
tribunals
Magnitsky
embargo
connot
pivot
rattling
Neighborhood
landowners
Peggy
EE
Pink
SOL
Vincent
cos
hott
hinder
##zior
##kas
isis
poking
##berals
perish
Inquiry
commended
relinqu
servicing
slum
##avius
illiter
sermon
distorting
marketed
THOSE
Bey
competitiveness
predisp
Courage
Fla
Supper
Taxing
empires
bureaucracies
woodwork
sponsorship
bailouts
disrupted
bicyclist
fetuses
PETA
##EEL
bastard
Haitians
scrapped
Chevy
FULL
##ranean
chromos
AJ
Bash
Dign
GB
Loss
Socr
benn
wimp
##iative
##NED
##hart
reapp
Thou
hamm
orbit
sull
disqualified
everytime
assurance
boon
truthfully
futility
messaging
##umbaya
disputing
doorstep
Speed
pleasing
SAY
incidentally
Confession
Termin
gatherings
boggles
MAGAph
russians
gospels
Knik
lynching
undertaken
Byron
cherish
submarines
Wiele
Questions
conundrum
Bot
Dial
DEN
Feed
Garb
Kona
Ooo
Sending
lender
oven
pales
waged
##e4
##maid
##VA
##itna
whipped
heirs
##emo
exotic
##apolog
Challen
persever
teat
Obstruction
hardcore
lively
headlights
##ixed
milking
humanities
caved
inflate
railing
##byter
divest
superpower
townhall
favorites
##ITION
rebound
shoppers
epith
announces
Keller
##ambig
nominating
deficiency
##OSS
Administr
Angel
creeping
tribalism
##luoridation
surrendered
Deady
Bradley
Polynesians
traumatized
Benefits
funniest
##LIARy
prestige
disavow
klastri
Bibi
Farr
Gre
Nurs
PQ
dur
##agh
##eque
##83
##FI
##▰▰
##itates
israel
beet
##idi
stup
arse
unbridled
clash
Canyon
poker
imposs
Angl
sentient
##former
authored
forcefully
profitability
Quebecois
homo
automotive
Elected
Markham
cellphone
Addiction
embraces
HEAD
Missile
weddings
Banning
mansions
Cowboys
Animals
wacko
Dictators
conscientious
Emm
Hus
MASS
Ny
Ruth
Sense
WI
boun
bumbling
fidel
hose
##zla
##Vs
##alitarian
##iters
onsl
Theft
cancers
outgoing
outfits
uprising
plains
crust
incivility
offences
grazing
apprentices
underhanded
Butler
##erns
##bezz
matt
Claus
skipping
generously
biod
contractual
mistreated
##ughead
Depot
councilors
troop
##liners
unnatural
isolate
intimacy
floats
Ergo
quebec
foisted
Waip
illustrated
exaggerate
##iiii
apostolic
##ettlement
##quisite
propagandists
RRIF
lurking
Gandhi
Bike
Cyn
Rivers
ii
mull
wax
##creen
##entive
doo
##astical
unne
clergies
##intons
Chill
Chase
partake
readiness
##ussed
Unit
monitors
choking
transient
depraved
classmates
coverup
revamp
##undra
##ISTS
##itchens
breaker
Resc
feeders
portable
packaging
fundamentalism
unreported
Suppose
Milton
pissing
raids
jeans
Gregory
authenticity
photographs
cooperating
wrecked
leveraged
##RUPT
sleeves
Hobson
ostrac
BETTER
avalanche
Corbyn
AOGCC
Ast
Bed
Rig
Sleep
Together
kitt
mates
##yards
##John
##icut
reaping
##illor
haired
excel
Canadiens
Andi
perplex
perverts
mayoral
decorum
baseline
##uges
possessed
Exchange
##ophones
Glob
hitter
capitalize
executing
horrifying
dispense
MSP
frauds
Suicide
##coin
irrevers
Browns
##guably
heavier
##GALLY
shrie
coddled
Maduro
Subaru
upgrading
Mainstream
Tribun
Gordhan
infringement
##ravity
consolation
pledges
sectarian
vapid
blathering
toddlers
tattoos
ascend
cranky
memorials
muzzle
##eveloped
undergraduate
Trudope
BCLibs
jewelry
razor
footnote
Cath
Diane
Pors
Rio
SAT
Sincl
Vaugh
Xavier
vanish
##fig
##incially
ingen
##adors
##estone
##andi
upstanding
gran
brunt
20K
indians
##arky
comey
##azio
planets
skies
destitute
Anytime
fearless
##iterated
similarity
Course
sorted
138
renaming
Finn
SOMET
Reduce
Design
musicians
##haber
TAKE
Hospitals
Repeat
Curry
tsk
totalitarianism
Increased
##abuski
pragm
Accountability
cherished
unavailable
cfm
kleptocracy
Dangerous
Hiroshima
amusement
Sincerely
Video
PROBLEM
Cox
Fisc
Rif
dads
eagle
gamb
renders
tense
##drop
##pin
sto
##abies
thanked
##iann
Obs
freeing
Statement
Arms
engender
eroding
recognise
filtered
Remind
complications
unsus
kickbacks
Yorker
recommends
censure
##RSE
Evans
smelling
calculating
analyzing
fetish
Castle
televised
muddy
Corrections
Scriptures
alignment
crippled
##aunted
interrupted
garycrum
propagandist
likeness
Inflation
Kendzior
COUNTRY
##American
Zoolander
mixture
Wielechowski
Failing
Gor
KE
Lav
LLC
PI
Sak
UBI
ail
banging
kim
mm
oust
tan
zoned
##rise
##cale
##lords
##qiy
##wald
##ocations
outline
plank
unsett
resounding
parochial
entice
confuses
equiv
THING
Whiteaker
explored
appoints
conclusive
##shev
catcher
irref
hangs
Murd
Roch
archdiocese
discovering
timers
quarterbacks
clerks
marginalize
Firearms
theres
Keillor
paradox
Violent
prophec
Innocent
supplemental
sketchy
Wheeler
4x
Ga
Ike
Olson
Ranch
SI
SING
mike
##HD
##isations
##illard
##ourage
unapolog
heretical
##pecting
meddle
##issance
thrives
Ancient
Justins
##encken
continuity
1917
gunned
possessions
Arrog
##array
budgeted
visions
unfav
typed
faithfully
circling
filmed
punt
flagrant
REG
asserts
quarterly
casually
Wildrose
Sherman
exceedingly
Listening
congested
assignments
glacier
entrepreneurial
Pardon
McVeigh
vernacular
Sinclair
AAA
AWAY
Dictionary
KO
Loved
MT
Nu
Ride
Zucker
gaz
##iour
##tos
##oos
##02
##lyph
##igger
framing
plent
unambig
quibble
covenant
bravery
impropri
relocated
concise
##ounge
Forcing
accessing
premiers
essentials
1400
DOH
colder
Latvia
departed
AFN
paycheque
misrepresented
puzzle
Audi
reverence
Idiots
comedians
Chrystia
Fighting
Prair
subpoen
Yakabuski
prairie
displeasure
Malaysia
incomprehensible
Dry
Golly
Nest
burr
gist
jaw
wretched
##ulently
##geant
traced
tags
##acts
unbel
Chi
counters
Stream
repaid
indent
syria
eviction
flailing
allowable
misbeh
##ATIVE
McN
envir
heartbreaking
tradem
Parking
comparatively
snowm
Judy
coworkers
escort
FoxNews
impeachable
entertainers
Attorneys
ambush
angered
Straw
launches
Superior
Walking
Daesh
floated
vaguely
##frame
Beaver
plurality
aerospace
Civility
monstrous
antithesis
hordes
Glacier
Haz
PK
bounty
##fax
##viol
##KES
##job
thunder
##erver
inund
##asis
whiff
##urrection
allergies
Whe
usern
disincent
Chech
spat
bron
requis
educator
misn
Seniors
honolulu
meteor
progression
pathway
Quinn
Above
Disgr
Greenland
marginally
dominating
nuances
weighted
distributing
steadfast
Maggie
portrayal
Infowars
subscriber
Jonah
Ladies
sequence
mascot
Ordin
Historical
Nanak
destabilizing
CIBC
##through
rejoice
neocon
eloquent
Earnings
bystanders
unneeded
Dough
Ferry
Gw
HFD
Mins
Mining
Numbers
TC
Tub
ire
pens
riff
ringing
##worm
##enable
##ayer
stances
hapless
##thia
deems
##ardash
craven
disin
disinteg
disillusion
perversion
Inquisition
consciously
servic
Ort
modicum
approvals
excusing
totality
roadbl
victimization
presentations
uncaring
##arcy
concludes
Carlson
innocuous
PROT
PRIV
sunlight
caste
BEEN
procedural
Value
triggers
360
forbids
contradicting
bushes
Boards
whistles
crucified
congregations
undertaking
contemplating
disenfranchise
rhy
Rudy
shepherd
Schwab
Rasmussen
absolut
COLA
chronically
alumni
bickering
multimillion
onslaught
Coy
Finding
asex
juries
kWh
mich
mund
nug
tuck
vatican
##gant
##bent
##cases
##mag
##inus
##omish
plaster
residing
blunders
longstanding
Ans
insulin
expedi
whitewash
Comput
skating
railway
Spare
111
originate
subsidiary
snaps
disposition
undone
Prevo
Smoking
Airbnb
Masses
Kimmel
unfairness
Railroad
missionaries
updating
scriptural
1940s
magnet
affiliations
reconcil
BOE
##hrer
Tribes
congrats
GMOs
Midwest
hippie
REPU
handicap
barrage
repetition
Destroy
evacuation
jungle
shortsighted
subjugation
annihilation
Competition
subservient
uppity
plentiful
ALE
Fan
GT
HOU
MR
Mencken
Rd
Saving
nun
ww
##wits
##season
shaping
golly
chim
##abin
bla
##rium
runoff
mined
differential
Conversely
##CAR
Denise
Guate
Parade
Calm
PMs
##she
assistants
precision
sanctity
attribution
correctional
Knowledge
smearing
Tribe
Casey
extraordinarily
satellites
wiretap
picnic
Fields
lemmings
Tobacco
overseeing
DSM
##fundme
Horrible
vomit
Clayton
Colonial
CITIZ
Dere
Diet
Eli
Gian
HHS
Jag
calf
jab
pbs
tes
##ZN
##2g
##erating
##reck
##odile
allege
##pelling
mailed
crum
disarray
compiled
Heads
countrymen
flound
Shock
behaves
privy
funerals
camel
Sched
Minnery
homophobe
Coinc
california
pedest
225
contacting
##aphobia
HAPP
Aleut
strengthening
Evolution
scheduling
Sundays
shrill
consenting
alarms
buffoons
supervisors
diluted
Continuing
Lights
nicotine
unlawfully
averaging
Weekly
nauseum
repentance
wielding
Chemical
Wendy
goverment
Harrison
Hond
Lingle
LOOK
SWA
Ze
dome
##hs
##enf
##owler
##umers
canard
##ardo
clintons
##reex
overview
grips
righties
compost
Store
##onderance
##uffle
organizational
amounted
##ricting
burqa
bulld
Irre
Corinth
sewers
modernist
[...]
